FFEC
0010
000E
000B
FFED
FFF4
000F
FFEE
FFF4
000A
FFF7
FFED
FFF6
0013
000C
FFEF
FFF6
FFEF
000A
FFF1
0011
000B
FFF5
FFF7
FFF1
0009
FFF2
FFF7
0014
0012
FFED
0010
FFF1
FFEB
0015
0013
0013
FFEC
FFEE
FFF6
FFF5
000A
000E
FFEB
FFEC
FFF5
FFEE
0009
000B
000A
0000
FFEB
0014
000C
FFEC
0016
000F
000F
FFF0
FFFA
FFF5
0000
0006
000F
000B
FFF5
FFF6
0012
0018
FFF4
0010
000A
FFEE
FFEA
0007
0011
0013
0013
0013
FFED
FFF6
FFF3
0013
0020
FFFA
001A
0019
0016
0013
0019
001D
0002
FFF9
0010
FFF6
FFF7
0007
000B
0011
0007
0013
000F
0012
0011
000D
000E
0012
0010
0016
0012
0016
0014
000D
000E
0014
0017
0016
0015
0019
000E
000E
0010
000B
0005
0016
0018
0013
0019
0019
0009
000C
0012
0018
0004
0012
0011
000F
0013
000C
0005
000F
000A
0006
0019
0010
0005
000F
FE54
FF5F
FF87
FF77
0026
FF94
006D
0029
FF99
FF81
FF8B
003A
FFDF
003D
003F
FFEA
FF4E
FF84
0061
FF1F
FF38
0086
007A
FFFB
006C
0091
00B7
001E
006D
0065
009D
FFCF
006E
007F
FFEA
005A
0084
00BD
FE6D
FFB7
FF65
000B
FFE9
FF4F
FE63
FD6F
001C
0027
FF23
FFA3
FF64
FFA1
FFD7
FF9F
FF95
FF8D
FFB1
FF98
FF97
FFC9
FFD6
FF9A
FF87
FF7A
FFC0
FF87
FFB9
FFCA
FF82
FFCC
FF3A
FF9A
FF7B
FF79
0045
001A
FFAC
FF6B
FF7E
FFC7
003C
000F
FFC4
FF80
FF76
FF96
FFF3
FFFA
FFAD
FF61
FF94
FF5E
FF92
FFB8
FF8F
FF7B
FF82
FF98
000B
0009
001D
0019
0010
0012
0009
0012
0010
001B
001A
0014
000D
000F
0012
001B
000E
0008
000D
0010
0010
0013
000F
0001
000D
000A
0018
000A
0015
0018
0017
0016
0015
0009
000B
000F
0011
000D
0019
000D
000E
000E
0007
000D
000E
000F
0012
000B
0012
FFDA
FFAA
FEFC
FDE0
FF31
FF18
005D
FF4A
FF98
FF98
FEFD
FEB6
0098
0009
FF89
FFF4
FFFA
FFFE
FF9F
FFCB
001C
FF3A
0005
0032
0031
FE7A
FFD5
FF58
FF97
FFB7
0037
FFD2
FEB3
FE23
FED3
FFA6
FFC0
FFDA
FFEF
002E
0019
FF21
0048
0095
0053
FF98
0066
0042
FFDF
FF99
000C
FF97
FF6E
0056
003B
002B
FFC8
FF7D
00A2
FF6C
0029
00B9
00B4
FEF5
FFDF
0008
0022
FFCE
FFC2
001B
FF2E
FE9D
FEDF
FFCB
0020
FFD7
FFDA
FF3B
FF1E
FEC6
FF3E
FFE5
0044
FF92
008E
0013
0026
0051
001A
FFC5
FF99
FFF7
004B
006F
004A
004A
FF5A
FEBA
FF3B
FF61
FECD
FF8D
FF49
0112
FF94
00AB
FFC3
0008
FFBD
0064
0004
0095
FFFD
FFB7
FE54
FFE1
0036
000E
00A7
003A
FFE3
FFF3
FFDE
FFE9
0003
0045
FF9C
FFF9
0034
FFDC
FFEB
FF9B
001C
FFFD
FFB7
0003
FFE7
002E
006F
0039
FF84
FFE9
0062
004A
0011
0003
FFA4
000D
0007
000E
0018
000F
000B
000A
000E
000F
0013
0011
001B
FFE5
FFE9
0017
000B
0009
0005
0012
0014
0001
0010
0012
FFEA
FFFA
000F
0011
0009
001D
000E
FFE5
FFFB
0008
000F
0009
0019
000F
0015
001A
0002
0015
000D
0018
000C
0010
0007
0010
000F
0013
FFF3
0003
0011
000D
000F
0019
000E
000E
0013
0018
0009
000D
000D
0017
0017
0010
000C
0008
0010
000E
0015
0010
0013
000B
000D
0004
0010
0013
0018
0010
0016
0016
FFF8
0008
0016
0015
0005
000C
000E
000F
0011
000D
0018
000A
0005
0016
0011
0010
0004
0008
000C
000D
0009
FFED
FFEE
FFF3
0015
000B
0015
FFFC
FFEB
FFF0
FFEA
0010
000E
000A
FFEB
000F
FFEB
FFF1
0010
0006
FFF3
000C
000E
000F
FFF0
000B
0007
FFEC
0014
000B
FFF3
FFE8
000E
000F
000F
0011
0008
0014
0014
000A
0004
0007
000C
000C
0007
000A
FFDC
0028
FFF6
0040
003C
FFCE
FFEB
0017
FFEB
006D
001E
FFE9
FF9D
FFEF
00B9
0048
0034
FF27
002E
005A
FF01
0012
002D
FF3E
FFBF
0070
0073
FD6C
FF72
FF2B
FF45
FF3B
0046
FF76
FF48
0020
FFA6
FEF8
FFA1
00A7
0096
0078
002A
0033
0013
0019
0088
0038
0040
000C
0009
0016
0014
0007
000E
0005
0006
000E
000D
000E
0012
0012
0006
000F
0017
0009
0007
0011
001A
0015
0012
001C
000C
0005
000A
000F
0016
0013
0013
0008
0009
000E
0018
000F
0018
0015
0008
0012
0014
0011
0011
0018
0014
0011
000E
000D
0010
000F
000E
000A
000F
0015
0012
000F
000C
0011
0015
000E
0010
0016
0014
0012
0011
000E
000E
000C
0007
0010
0011
0014
0012
0012
0006
0007
0011
000F
000D
000D
000F
0012
000A
000F
0015
0010
0008
000D
000A
000A
0010
0019
0017
000D
000F
0002
000F
000E
0015
0003
FFF2
FFEE
FFF2
000A
000D
FFF3
FFFE
0009
FFF1
FFEF
FFF7
0012
0011
FFF3
0012
0014
FFEC
FFF0
000F
000C
FFF5
0013
000F
FFF3
FFF7
000D
000D
FFE7
0010
0009
FFF7
FFF7
0011
0016
FFF7
FFF3
FFF0
FFF3
0012
0009
FFFA
0011
0008
FFF4
FFEF
000A
FFEE
FFEF
000E
0007
0009
0007
0015
0012
000B
0010
0005
0008
000A
000C
0004
0007
000C
0012
001D
0009
FFFF
0018
0013
0010
0012
0010
FFF9
FFF1
0011
0015
000C
0010
000E
FFFB
0001
0014
0017
0015
0015
0012
0000
0005
0011
0012
000C
0014
0010
000E
0007
000E
0013
FEE6
FFDE
0000
0040
0062
005E
FFC9
0017
FFF6
0048
0073
0065
FFED
008A
FFBE
FFBB
FF7D
FFBC
FF3A
FF05
FF2D
FF7E
FF78
0091
FFA0
FFD8
FE32
FEFA
FEE1
000E
00DA
00E6
0007
009F
0041
FF15
FED4
FE80
FF08
0135
00D1
008C
005E
007C
FF70
FDDB
FFBC
0027
FF4D
FFF3
FFEF
000C
0011
0013
000F
000E
FFF2
FFF3
000F
0013
0014
0001
000A
000A
FFF6
FFF1
FFF1
FFEF
FFD4
FFD8
000E
000C
FFEB
FFF6
FFED
FFC0
FF88
0012
0013
FFF7
0015
0012
FFF0
FFA9
000E
0014
FFF6
FFEB
FFEE
FFD4
FFDF
0012
0011
FFF6
0015
0046
FFFE
FF9B
FFF1
0009
0003
0012
0017
0019
0011
0016
000B
000A
000F
0012
0035
0007
0015
0006
0003
FFF0
0006
000C
001D
0012
0005
FFF3
FFEC
0016
FFDC
004A
0011
0012
FFF7
0008
001E
000C
FFE9
000C
000D
0008
FFF4
0038
FFBC
0000
FFEF
000F
0013
FFD8
FFB8
0020
0007
0007
000E
0074
006B
0084
004B
FFA3
0019
001C
0071
007C
0072
0057
000C
0018
000E
FFFD
FFF1
FFF3
0007
FFD0
0018
0014
FFF4
002F
0015
0032
FFCE
001C
0050
FFF9
0015
000F
FFFB
0006
FFC8
0051
FFEA
FFF4
FFDD
FFD9
000C
FFC4
FF9A
FFBF
FFEC
FFED
FFF0
FFEF
FFEE
FFF3
FFF5
0009
0012
FFEF
FFF8
0011
0009
0013
0010
000A
000A
0008
0013
0010
FFF3
FFEC
0013
000A
0013
000A
0011
FFEF
FFF2
000B
0010
0014
0011
000F
0011
FFF1
FFED
FFF3
000A
000D
0009
0009
000F
FFED
000E
0013
FFEB
0014
000B
000D
FFEC
0015
0015
FFF0
FFDD
FFDE
FFBA
0016
0047
008B
FF21
FF07
FFC1
0079
0084
FFCC
FF85
FFD4
FF0C
FE75
FEAC
FF85
FF4E
FFC5
FEF5
FE36
FF36
007E
0030
FE47
FDFD
FFAD
00CD
FFC8
004B
0007
FFE0
0070
FFB5
0045
FFEE
FE90
FFAD
001D
002E
00DA
FF8A
FF8A
FF03
FF02
FFA7
FFC0
0009
0010
000F
000E
0015
000E
FFFC
000D
000F
000A
0015
000F
0019
000A
0016
000F
000B
000C
0007
0010
0016
0014
0013
000D
0007
0007
0012
0018
0016
0016
001A
000B
000B
001A
0011
0011
000E
0016
000F
0012
000E
000E
0013
000D
0008
0009
000B
0010
000F
0035
0009
0031
FFEF
FF5F
0001
0047
0086
0064
0031
0012
0034
FF58
FF68
0075
009A
0012
0002
000E
FFCD
0020
FFF3
0065
FFEE
FFF1
000F
0001
001A
0000
003C
FFF3
FFD3
0052
004F
0044
0041
0008
FFC6
FFEB
0030
0040
006A
0074
0004
0011
0002
004E
003F
006B
0013
000F
0001
001C
001E
0035
003C
0015
0009
0007
0007
0021
001A
0040
0007
0010
0010
0013
FFEE
FFDF
003C
0009
0011
0012
0003
0000
0012
0033
0008
000D
0011
0011
0011
0015
0043
0004
000C
0008
000C
0009
001A
0011
0009
000D
000F
0010
0011
0018
000E
0036
FFED
FFE6
0035
0019
0054
FFF9
FFFF
FFE2
0050
0028
0036
005C
0019
FFF2
0048
004E
0027
FFF4
0039
003A
0021
0042
0053
0025
0023
FFFE
0023
0019
0038
0030
0046
004E
0056
004C
FFE9
0020
0031
005A
0010
004B
004F
001E
0006
0031
0031
FFED
FFF2
0009
0055
002F
005F
0025
FFF2
0013
004E
005D
FFF8
0060
000F
001F
002F
0042
0079
0020
004D
004C
0065
002E
FFEB
0061
004A
0038
FFEB
0006
0036
003D
0043
009B
003D
0041
003B
001A
002F
0069
0019
FFEB
0030
0063
0059
0044
007C
0046
FFEE
FFFE
0030
0036
004E
0008
0006
000C
0010
0012
0019
000E
0018
001A
0013
0015
0015
0015
0017
0014
001A
000E
FFFF
0008
0012
0010
0010
0014
0014
000D
0011
0019
0013
000B
0010
0011
000E
0016
0010
000E
0001
0010
0015
000A
0015
001C
000D
0007
000F
0004
000D
0010
000B
0005
FFF3
FFED
FFF0
FFEE
0014
0009
FFF3
0012
000C
000B
000C
000F
000F
0008
0011
000C
000E
FFF4
FFEB
0009
0013
0013
0010
0011
FFF3
FFF5
FFF7
0015
FFED
FFF0
0011
000B
000E
FFF5
001B
FFF4
FFEE
0008
0015
FFEE
FFF4
0010
FFF1
FFF7
FFF4
FFF2
FFEE
FFE7
000A
0001
FF7F
FF3D
FF3A
FF6E
FF74
001C
FFEC
001F
FF8A
FFE8
FFFB
FF5E
FFEF
0057
FF25
00CA
0105
005B
FFF3
FF16
FF99
FFF6
018E
0054
FDD0
FF3A
FEA8
FFD6
FFDF
0120
0064
FEC8
FF9E
FEF8
0005
FFF2
008C
FF5E
FE51
FF6B
FF97
FF5D
0085
007F
FF32
FF4B
FFA7
FF58
000E
000B
0006
000C
000B
000B
000F
000B
0008
0009
0006
0008
000E
000F
0008
0011
000C
000B
000F
000C
0007
0010
000D
0001
000A
0008
000B
0006
0011
0005
0005
000A
000D
0008
000F
0019
0008
0009
0009
0008
000D
0011
000C
000A
0009
000F
0012
000E
0008
FFEF
FFF7
FFF7
FFF6
FFF3
FFED
FFF2
FFEB
FFF6
FFF0
FFF6
FFF4
0011
FFEB
FFF1
FFF4
FFF3
FFF6
FFF7
000D
FFF2
FFF0
FFED
FFEB
FFF1
FFF6
0009
FFF6
FFF3
FFF7
FFEC
FFF3
0011
FFEF
FFF4
FFF4
FFED
FFEC
FFEB
FFF6
FFF8
FFF7
FFEB
FFF6
FFF2
FFEC
FFEB
FFEB
FFEE
0002
FFFE
FFF1
FFF2
FFF4
FFF2
0003
0006
FFF9
FFF7
FFF1
FFFD
0007
0009
FFFC
FFFA
FFED
FFF5
0000
0000
FFFE
FFFC
FFFE
FFF2
FFFC
FFFD
FFFF
FFFE
0003
FFFA
FFEF
FFFF
0005
FFFE
0000
0008
FFFA
FFFD
0007
0007
0000
FFFC
000A
0006
0008
0009
0008
0003
0007
0010
000E
000E
0006
0010
000B
000A
0009
000C
0006
000A
0011
000B
0008
0005
0010
0009
000D
000C
0003
000A
000F
0006
0004
000D
0009
000D
000B
000D
000C
0005
000B
0004
0005
000F
0009
000A
0005
000A
0007
0004
000B
000F
000A
000F
0008
0010
0008
0006
FFBA
FF55
004D
FF61
00CB
0001
FF15
00DE
00FE
005A
008F
0132
003F
00C9
FEF1
FF7E
0073
0079
FFD4
FFB9
FF19
FE03
FEF7
006A
FFBF
FFD6
003F
FF02
FEAF
FFF1
006E
009C
002D
FF5F
FF8F
003E
0008
000E
FF97
FF98
FF4E
FFCB
FFA6
FF8F
00AF
0065
003C
0016
010C
FFF9
FFEB
FFB0
0000
0015
0000
FFDE
FFF9
FFFD
005A
0047
001A
FFF6
FFF1
FFE8
001D
FFDF
0035
FF96
FFB5
FFD8
FFCE
000D
0002
FF7C
FFB5
0020
FFD7
FFE6
0022
001C
FF9D
FFCB
FFEB
FFCA
FFE1
002F
FFAF
0016
FFDB
FFF8
FFE5
FFF4
0016
0075
FFD0
FFF9
FFD9
FFFB
000F
000B
0005
000D
000B
0007
0004
000C
FFFF
0005
0009
0009
0007
0010
0003
FFFD
000B
0009
0009
0004
0004
0007
0007
0005
0003
000E
0009
0007
000E
0007
0006
000A
0008
0004
0009
0005
0011
0007
0008
000B
000F
0006
0010
000E
0006
000D
000E
0015
0014
FFDA
FFF3
0019
FFA7
FFC0
FF5D
FE96
FFDE
FF70
00D7
00B1
0052
FFA2
FF14
FF8B
FF5A
FFEE
FFFA
005F
0011
010E
FF9B
FF8C
FFF5
FF9F
003E
FEA5
FE9B
FFA8
FF90
FFEB
FFAB
002C
FF61
FEDD
FF94
FFCB
0018
00D5
000B
0024
0032
FFDC
FFDE
0070
FFEF
0022
FFA4
FFDF
0061
0143
00C2
0034
004B
00CD
0063
FFA5
FFF0
FF1F
003C
00BA
FF32
0035
FFED
0053
0012
FFE6
0096
FFA2
FF77
FFBF
00C2
FFB7
FED5
FF7C
0000
00BA
FFF0
0048
FE3C
FEFD
FF14
FFEF
FFA7
003A
0044
FF95
FFF4
0093
0033
00B3
000A
FFC0
FF9D
FFFC
0021
0078
00C8
006F
FFF6
0047
004E
FFF2
FEF6
FFEE
FFC5
FFD1
FFF6
005A
FFFC
FF90
0041
FF38
0078
0097
0049
0011
FFF2
FFC0
FE9D
00D5
004D
0025
FFF5
FFB3
00C4
0092
00B6
001F
FF82
FFFF
FFD9
FF35
0075
000F
FF83
0012
FFF5
FFF8
000A
FFA7
000D
FFD8
FFE7
FFE9
FFA9
FFDF
0003
0000
0006
0003
0009
0003
0000
0000
0003
0006
0000
FFFC
FFFB
FFFF
FFFF
0001
0005
FFFF
FFF0
FFFB
FFFB
0002
FFFE
0005
0000
FFED
0000
0000
FFFB
000B
0007
FFFA
FFF3
0000
0000
0003
0008
0003
FFF2
FFF2
0000
FFF6
0009
000A
0000
FFF6
FFF1
FFF6
FFED
FFFB
FFFD
FFF6
FFFE
0004
0000
0004
FFF8
FFF2
0002
FFFA
0008
0003
0000
FFF2
FFFA
FFFB
FFF5
0009
0000
FFFD
FFF3
FFFC
FFF8
FFF6
0007
0001
FFF2
FFF3
FFFC
0000
0007
0006
FFFF
FFF6
FFF3
FFF9
FFFE
000A
0001
FFF6
0000
0000
FFF9
0008
0005
0006
0001
0000
0007
0004
0007
0010
000A
0009
000A
000E
0007
0005
000E
000C
0011
0006
000A
000D
000D
0009
0009
0010
0008
000A
000C
000A
000E
FFEF
0006
0011
0006
000C
0010
000C
000B
000A
0007
000E
0008
000C
000E
000A
000A
0006
0005
000B
000B
0007
000C
000D
000B
0031
FFB6
0051
0000
0040
007F
010F
FF3E
FFD2
FFB9
0027
00A1
0039
0031
FF68
FFA2
0024
FFCB
FEC6
FEE5
FF9F
FE6D
0013
000D
FFDB
FE9D
FE66
FFF1
003D
FF94
FFB3
FFBB
FF57
FF6B
FFB2
FF64
FFC9
FF83
003C
00EF
FF27
FFEF
FFBA
FFEE
00CA
0053
000D
0064
0060
0011
0008
000B
0011
0006
0006
0011
0010
000D
0010
0006
000C
000E
0005
0004
0002
0006
0007
0005
0007
0008
000A
0000
000E
0005
0005
0006
0006
0001
0001
0006
0008
0001
0009
000F
0005
0009
0009
0005
0007
000F
0010
0005
000F
000E
0008
0006
0008
000B
000D
0007
000A
000A
0007
0006
0005
0005
0008
0009
000E
0003
000D
0009
000D
0006
0007
0010
0003
0009
0002
0003
000D
0008
0008
0006
0007
0002
000B
0004
0006
000A
0006
0003
0008
000E
0009
0008
0008
000F
000D
000A
0006
000B
0010
000A
000C
0008
0009
FFFD
FFF6
FFEC
FFF2
FFF3
FFF6
FFEF
FFFA
FFF2
FFF0
FFF3
FFF3
FFEE
FFED
FFED
FFF4
FFF4
FFF5
FFEF
FFF5
FFF3
FFF1
FFF2
FFF6
FFEB
FFEB
FFF6
FFF7
FFF5
FFF5
FFEC
FFF8
FFEF
FFEE
FFF6
FFF2
FFF0
FFF0
FFF4
FFED
FFF5
FFF2
0002
000A
FFFB
FFF3
FFF5
0011
FFF7
000E
000C
0007
000A
0015
000E
0010
0009
000D
0003
000D
0006
0004
000F
000E
0007
FFFF
000E
000F
000A
0006
000E
000C
0009
0001
0001
0002
0005
0007
000E
000A
000A
0007
FFFF
0007
0005
0008
0005
000F
000C
0004
0008
000B
000D
0005
000A
000A
000D
000C
0047
FFB2
0023
003C
0043
FFAC
00B2
FFA5
0024
FFAB
004F
0044
0046
000C
FF89
0000
FEE7
FFA4
FFC5
FFBD
005B
0048
FF51
FF8D
FF15
FFF1
0014
FFCE
00DD
0041
FFEA
FFB9
0030
FFD5
FFEA
FFFC
0015
0026
00D3
FFB3
FE7E
0010
008D
0017
00F8
00B4
0048
FFB2
FFAC
FFF4
FFEC
FFF6
FFEB
FFF5
FFED
FFEB
FFF4
FFF5
FFEF
0017
FFF9
FFF5
FFF1
FFEE
FFF0
FFEC
FFF6
FFBA
007F
003C
FFF0
FFEF
FFF7
FFF2
0006
0094
0002
FFEB
FFF5
FFED
FFF0
0030
0043
FFE7
FFF7
FFF0
FFEB
FFF8
0026
FFA2
FF72
FFF4
FFF0
000A
FFF5
0066
0017
FF51
FFF6
FFEC
FFE5
FFC0
0011
FFEC
FFBB
FFF6
FFEC
FFF1
0005
0008
FFEA
FFBD
FFF2
FFF3
FFF4
0014
FFCE
0038
FFEB
FFF4
FFF6
FFFA
0017
FFF8
FF88
001B
FFEE
FFF3
0012
FFE1
FFF2
FFE0
0065
FFF1
FFED
FFF6
0009
FFEE
FF99
FF85
FFEF
FFEE
FFEA
0031
001C
0039
FFDF
FFEA
FFF6
FFEE
FFE4
FFDC
FFF2
FF69
FFEE
FFE9
FFFD
0009
FFF4
FFC7
001D
001F
FFD7
FFFF
0004
FFFF
FFE3
FFD7
001E
FFDC
FFE8
FFF4
000E
FFF7
FF9A
FFF7
0017
000D
FFF0
0026
0018
FFA7
FFF8
001A
0031
0036
FFD0
FFC9
FFDC
FFF9
0085
0034
002F
0037
FFF5
FFF6
FFF5
FFEE
FFF1
FFEB
FFF7
FFED
FFEB
FFF2
FFF4
FFF5
FFEF
FFEB
FFF4
FFF6
FFEE
FFED
FFF4
FFF3
FFEE
FFF2
FFF0
FFF6
FFF3
FFF7
FFF4
FFEF
FFF7
FFEF
FFF2
FFEC
FFF5
FFF6
FFED
FFF6
FFEC
FFF2
FFF2
FFEC
FFEE
FFF0
FFEF
FFF2
FFF0
FFF4
FFF1
FFF1
FFF3
FFEC
FFEF
FF3A
002D
FF31
FF27
FFBF
FFC9
0082
FFCA
004C
0027
FF76
FFD6
FF12
FF92
FFFC
FFFA
FFB6
FF9A
FFCD
FF61
FEF2
FF5B
FFE9
0080
0067
FF6E
FFC5
0020
FF90
FF2E
0061
FFF4
FFEA
0055
000A
0033
0041
00C9
FF7B
FFCA
0050
0110
003E
0092
0072
007F
0077
00D5
004F
0003
FFFA
0007
0001
0002
FFFF
0000
0001
0001
0002
000A
0000
0001
0004
FFFA
FFFB
0000
FFFF
0001
FFFD
0003
FFFF
0001
0001
0001
0004
FFFD
0002
0007
0002
0003
0002
FFFE
0003
0002
000A
000B
0007
000A
FFFD
FFFF
0003
0000
0006
0007
0000
0001
0003
0006
FFD8
FFDB
0008
0037
0016
FFEC
FFFD
FFB4
FFF9
004E
0009
FF9D
FFEA
0040
001A
0015
0052
FFF5
0012
0020
0025
0048
0025
0046
FFEF
0040
FFB7
FFAA
003A
0023
0056
FFF1
0035
FFCE
FFFC
001B
0042
0016
0009
FFC3
FF96
FFC4
FFD1
FFF0
0003
0015
FFD3
FFEF
0021
0005
0001
0000
0008
000D
FFD8
0000
0009
000F
0004
000A
000F
FFDC
FFC3
0008
0007
0006
000B
000D
FFF4
0009
000F
0008
0005
000A
0000
FFEF
0000
000B
000F
0007
0006
FFF2
FFBE
0009
0009
0009
0009
0007
0000
FFEB
0011
0010
000D
0004
0006
0009
000A
0006
0002
FFEC
002D
003B
000D
FFEC
FFEE
FFF4
FFEE
004F
003B
FFEB
FFF1
FFF6
FFF4
FFF2
0057
004F
001F
0003
FFEB
FFF4
FFFC
0056
0051
0020
0013
FFF4
FFE6
FFEA
004D
004A
001B
0032
FFF3
FFE9
0010
0022
002B
FFF2
FFF6
FFF7
FFF6
FFFD
0000
0035
000F
FFF1
FFF8
0059
005A
0043
0056
006A
007D
005B
0015
FFC7
0028
005E
0041
FFED
0052
0041
002A
0023
0026
0054
0069
004F
003D
0046
003D
004C
0038
006F
0023
0030
FFDF
0060
0022
0046
0044
0056
003B
0051
0070
003E
0071
0037
003E
0045
003C
0050
0027
0065
004B
0051
000E
0009
0002
000D
000A
000B
0005
0005
0000
0007
000B
000D
0007
0005
000E
0007
0003
0007
0005
0001
000C
0008
000C
0000
0007
000B
FFFF
0009
0004
000C
0009
0008
0009
000C
000F
000E
0009
000A
0010
0007
000F
0006
000F
0007
000B
0010
0004
000C
0010
FFED
FFEC
FFEB
FFF6
FFF3
FFF3
FFF6
FFED
FFEB
FFF5
FFF7
FFF7
000B
0000
FFEE
FFF0
FFEE
FFF1
FFF4
0043
FFF4
FFF7
FFF1
FFEC
FFEE
FFFC
FFF6
FFF5
FFF5
FFF1
FFED
FFF7
FFF6
FFEF
FFF6
FFF4
FFED
FFEF
FFF3
FFF0
FFF5
FFEC
FFF5
FFED
FFF0
004A
FFCD
FFF2
FFF4
FF9B
0034
0047
0041
001F
0084
FFF6
0044
00B4
00B2
FFFF
FFCD
0016
FFAB
FF9B
00E5
FFE6
FFF1
FF8B
FF9B
FFD9
FFB1
FEA5
00AA
0008
FF77
FFDD
000B
FF3D
FF79
00F2
FFEF
0058
006F
0051
0003
0087
FF7D
00A0
0090
FFDA
0053
FFCE
FEF2
FFD5
00B3
FF1F
FF24
0028
0008
000B
0006
000C
0009
000F
000A
000C
000E
000B
0011
000B
0006
000D
0006
000A
0009
0012
000F
000D
0010
000B
000D
0013
000E
000D
000F
000F
0008
000F
0012
000E
000A
0011
000A
000F
0006
000D
000F
000C
000D
0011
0007
000B
0011
0006
0013
000B
0014
000C
000C
0010
FFEB
FFEC
000A
FFED
0013
0012
0011
FFF0
FFF0
0014
FFF4
FFF0
FFEE
FFEF
FFF2
FFED
000D
FFF6
0009
0015
FFF0
FFF2
0015
000C
FFF0
000D
0015
0012
FFF7
000C
FFF4
FFED
FFF7
FFF0
FFED
FFF4
FFF1
FFEB
000F
FFF7
FFF4
FFEB
FFEF
FFF6
000C
0013
000E
0010
0010
FFF1
FFF5
FFFA
FFFD
0013
001A
0011
0010
0001
FFF1
FFF3
0014
FFF8
000E
0010
FFFA
FFFE
0014
0001
0006
000E
000E
0007
000C
0017
0011
0012
FFF6
0004
FFFF
0018
000F
000F
0010
0012
0016
000F
0017
000D
0005
FFFC
FFF5
FFF0
FFF4
0004
FFFE
000D
0014
000C
0012
000A
0006
000B
0007
000F
0014
0008
0010
0005
000E
0003
0009
0005
0010
000A
0008
0005
0010
000A
0003
0011
0008
0006
0016
0011
0010
000E
0012
0005
0010
0010
0004
000A
0008
0004
000F
0016
0010
0008
0004
0003
FFFD
0001
0005
000C
00A5
012F
0037
0016
FF37
006C
FE9C
FF88
0040
FFD6
FFB4
FF24
FFBA
FF90
FEDE
FF09
001E
007E
0099
0012
FF74
FEFD
FEBC
FFB8
FFA7
004F
0006
FFF0
004C
0090
FF9B
FF27
FFCE
0064
0000
0077
0013
0005
FEBC
FF5E
0007
0024
FFBA
FF44
FF0B
FD39
FFFD
FE5C
003C
FFD3
000F
FFD1
0033
FFFD
001A
FFFB
FFE2
FFF6
FFEF
FF8D
FFBC
FF9E
FFA4
FFFC
FFFA
FFAF
FFAF
FFEF
FFF8
FFDD
FFCD
FFB6
FF98
001F
FFC3
FFC4
001A
0008
000D
FFA2
FFF4
FF96
FFC5
000B
000B
FFC8
FFAF
FFA8
FF8A
FF74
FFD5
FFFD
FFC6
001E
002C
FFCA
0000
FFE7
000F
0018
000D
0013
0015
000E
000D
000C
0010
000F
000A
0004
0004
0001
0000
0002
0006
0009
000A
0005
000E
0014
0017
0017
000E
0003
0016
000E
0012
0017
000B
0011
0013
0011
0017
000D
FFFF
FFFC
0002
000D
000D
0011
000A
0008
0006
000D
000D
0011
0007
000C
0025
FEEA
0050
00EB
00DA
005E
FF81
FFF4
FF4D
0105
009F
003D
00D1
FFD1
FFD0
0002
00E7
00A1
FFC6
00A1
0055
00A6
FFF3
FFC6
FF81
FEA0
FFBE
005B
0027
FFEC
FFE2
0037
FFF1
FF05
004C
004E
00B2
FF71
001F
FFB4
FF96
FF84
002E
FF4E
000E
00E7
FFEE
0038
FF77
FFE8
FEB8
FF95
007A
0011
FF95
00C9
00C0
FFAE
0098
0102
0036
FFE4
0039
001A
FFFD
FFF1
FFDF
FFAF
FFD5
0097
FFB1
FFDB
FF70
FFC1
FF83
0082
FFAD
FF14
FF3F
FF5E
002E
007A
00BA
0081
FFE5
0006
FFEA
008B
0103
0039
0026
0034
FFED
FFE1
0025
00FD
0012
FF6A
FFAB
FF37
FFAC
006A
009B
FF69
0017
0012
0079
0075
00C1
FFA7
FFE6
FD10
FF3C
FDC1
004C
FFFB
FF9C
0049
FE89
FF98
FF16
0009
FFF8
FFF6
FF76
FEBF
00C7
002C
FF9E
FFE8
FFCD
004C
FFA5
0029
001F
0038
002B
FFB6
FFD8
FF6F
000A
FF65
FFB8
FF9B
004F
00D5
0012
0011
0017
0013
000E
0008
0003
0011
0016
000F
0017
0013
0013
0011
0009
0003
000D
0012
0000
FFF4
0009
0000
0013
0004
0001
0010
0018
0014
0017
000F
0005
0001
000E
FFF1
0006
001A
0018
0010
0010
0016
000F
0014
0011
FFF3
FFEA
FFED
FFF4
0015
0013
0018
0016
001B
001A
0015
0007
000D
000F
0013
000A
0004
000B
000B
000B
FFF9
FFFA
0009
000B
0006
0007
0000
000C
0019
0012
0008
0016
000A
000B
0012
0010
000C
0018
0017
000D
0014
0017
0006
0008
0013
000B
0019
0013
000F
0011
0008
0007
FFF4
0007
000B
000D
0011
001D
0010
FFFC
000C
0008
000C
0010
0009
FFE9
FFFE
000D
000F
000F
000C
0011
000B
0011
000F
0012
001E
0021
0014
0011
000A
FFF0
0001
0010
0023
0012
000B
000E
000F
FFF5
000F
0009
0010
000C
000B
000F
FFF3
000A
000D
0004
0005
0005
0010
0004
FF79
0017
004E
FFF2
FF56
FFC5
FF6B
0069
0011
FFFC
0064
0009
0028
FEE1
FF97
FFCC
0003
0091
004D
FFE7
FF08
00C9
00B8
0035
0047
0049
FFF3
FF4A
0083
FFC2
FFF6
FF8A
FED3
FFD6
006D
FF28
FFB2
FFC8
0004
FFF0
0032
0097
0087
0064
0029
000C
000E
FFCC
0032
000C
000B
0010
000D
0009
0014
0005
0015
0016
000E
000D
000B
000A
000D
0008
000D
000C
0007
000D
0003
000E
0006
FFFE
0004
000B
0001
0004
0005
0003
0002
000B
0009
0013
0010
000F
0010
0018
0009
0012
0013
0013
000E
000E
000A
FFFA
0001
000D
000D
0012
000B
0012
0016
000D
000D
0005
0010
000B
0013
000B
0014
0009
0016
0007
000A
0005
0004
0006
0009
0007
000C
000D
000B
000D
0012
0014
0017
0018
0004
000E
0010
000E
000F
000F
0013
000F
0007
0005
0000
0005
0015
000F
000A
000D
000C
0008
000B
0009
000C
FFFA
0010
0013
000B
0014
0015
000B
FFFF
000F
FFF7
0017
000B
FFED
FFEF
0015
FFF7
FFF2
FFF4
FFEB
FFEB
FFEE
0013
FFF5
FFF1
000C
FFF7
FFEA
000B
FFEF
000C
0015
0012
FFF7
0008
0013
FFEB
FFF4
FFF5
FFF1
FFF7
0005
000F
000D
0010
FFF4
FFFA
FFF4
FFF6
FFEF
000B
000B
0008
0015
000B
000F
000A
0006
000D
000F
0006
000F
0006
000B
0018
000F
0002
000C
0006
0006
000D
0008
000C
0005
000E
FFF7
0001
000E
0008
0008
000C
0001
FFFC
0006
000B
0014
000E
0014
FFFF
0014
0014
0014
0010
0019
0010
0005
000E
0010
0018
0000
0055
FFEF
0028
FF8F
FF96
0019
FFA4
001C
FFB3
FF9C
FF7E
FFA9
FFB5
FFE9
0070
00B6
FFA1
FFDD
FF3E
FEFA
0078
0057
0036
00C6
0035
00B8
002F
FEF8
FE66
002C
00EF
006D
0036
FF7B
FFF4
002E
FFC3
FFFB
FF40
FF46
0009
0086
0030
FF80
FF24
FF1B
FFE4
005A
0013
0008
0012
0013
000C
000D
FFBB
FFF5
000B
FFEB
FFF8
FFF7
FFE7
FFE6
FFF7
FFF6
000A
0011
FFF7
FFD1
0033
FFEF
0013
000C
000D
0058
002E
0030
FFEE
0012
0014
FFF5
FFD5
FF99
0026
0015
000E
FFF2
FFCB
FF72
FF7A
0015
000C
FFF4
FFEF
FFB3
FF9B
0088
FFA1
FFC5
0012
0009
003A
FFD9
0012
FFEA
0005
000A
0015
FFF6
FFE7
FF88
0037
FFF1
FFF5
FFFC
0016
FFEE
FFC1
000C
000D
0000
0011
0010
000A
0001
001F
0019
000B
FFFD
FFED
FFF8
FF6A
0026
000F
FFF2
FFED
FFF4
FFF2
0058
0077
FFF3
FFEF
FFF2
0036
000E
0059
0038
004B
0054
003F
002B
000B
FFB2
FFAD
FFB8
000B
FFDB
FFDD
FFBF
0021
0050
FFE3
FFDA
003A
FFEC
FFD3
005E
001E
0041
006A
0051
0051
0005
003F
004C
0072
0048
0036
0026
FFB9
FFE1
0017
005F
FFB9
0017
FFB1
FFBC
FFF9
FFAF
000A
0013
FFBB
FFCC
FFC7
FFF6
FFEC
0013
000A
000D
0014
FFF5
FFE8
0021
000E
000B
0013
000A
FFF0
FFEF
FFF2
FFF0
FFF3
FFEF
FFEE
FFF5
FFF0
FFCD
FFEB
0012
0010
FFF5
FFF3
000C
0012
0009
000F
0009
0015
000F
0010
0011
0014
0010
000E
000F
000D
0015
000D
FFEB
FFEE
FFF5
FFF0
FFF4
FFEB
000B
003A
FFB3
00A3
004B
FFF7
FFD2
FF82
00A8
0076
005C
00AA
005F
FFDC
FF87
0039
00D8
00C3
0121
0016
FFF5
0027
FFFC
FF98
FFBF
000F
FFF6
0007
0031
0044
FFBB
FF0D
FFBF
006B
0086
0039
008B
002C
FF89
FFE7
00F2
0038
FFE3
FF3B
FF5C
FF56
FF6E
002F
00E7
0093
0013
000F
0011
000F
0012
000D
0009
0007
0006
000F
000D
000F
0000
0003
0007
0006
0000
000B
0004
0004
0009
0012
000D
000F
000E
0006
000E
0010
0016
0011
0014
0013
0011
000F
0016
000F
0006
000C
0008
0005
001A
0018
000A
0014
000A
0001
0005
000A
0004
FF68
FF83
FFA1
0047
FFB6
FFA2
FF9E
FFDD
FFA9
FFF4
FFE5
FFE1
FFA5
FFAC
FF85
FF81
FF81
000A
FFB7
FF71
FF9D
FF5E
FF93
FF95
FFB7
FFC3
FFA7
FF8E
FF8E
FFC7
FFB5
FFF6
FFD7
FF9C
FF9D
FFC5
FFE9
FFAF
0039
FFB8
FF9C
FFB8
FFBB
FF92
FFB8
FF96
FFB1
FFA9
FFE2
002A
0025
0017
000B
FFFD
0037
FFED
0014
000C
0013
0015
0006
FFC7
FFD1
0013
0011
0003
0006
000E
0023
002F
0010
000C
0018
000E
000B
0022
003C
0009
000C
0013
000A
0002
0022
0027
0007
0012
0010
0007
0007
000C
001D
000E
000E
0012
0009
0006
0012
0004
001C
FFED
002B
004D
0058
001F
0037
000F
000C
0020
006F
0053
002A
0033
0017
001C
0023
0033
003E
0045
0055
0032
0036
0056
0054
003A
0051
0066
0043
003B
0031
004A
0038
0063
0028
0054
0050
002E
0037
0035
0044
FFF2
005C
0059
FFF8
0044
004F
0057
0010
FFBC
FFE6
FFC1
FF9B
FF9C
0047
FFAB
FFA8
FFEB
FFC8
FFEC
FFE3
FFAE
FF8C
FF8B
FF9E
FF9B
FF64
FF92
003C
FF91
FFC4
FFA7
FFB4
FFA4
FF93
0066
0042
FF9A
0003
FFB3
FF9A
FF77
FFD4
FFB9
FFA2
001F
FFF2
FF8D
FF6E
FFD6
FFC0
FF95
0014
FFAE
FFB1
FF9C
FF9B
FFAB
000B
0010
000E
0008
0003
0000
0007
000A
0002
0005
000F
0000
0004
0004
0005
0009
000B
0009
0008
0000
000B
000F
0018
0015
000C
000B
0012
0013
0011
000C
000C
000F
0010
0010
0011
0008
0007
0006
0001
0007
0017
0010
0008
0011
000C
FFFC
0004
000E
0000
0015
FFF0
0013
000C
000A
0015
0007
FFF0
0014
0013
000C
FFF7
FFEC
FFEF
FFF0
FFF4
FFF3
FFEE
FFFE
FFE8
FFE6
000D
0012
0010
FFF7
FFF5
005A
000B
0014
0014
0014
0014
0013
0010
000B
FFED
FFF4
FFEB
FFF1
FFEC
FFF6
0012
000A
0010
0014
FFE6
FFF1
FFF1
FFF0
FFC0
0021
FF83
FEE7
FF6D
FFAE
FF8A
FFFF
FF5A
FFFD
008F
FFE9
FEC9
FEB3
FFE6
FF51
FFD4
004D
0063
FFBC
00D2
FFE2
0130
004F
0008
FFFB
0054
00D7
FF5C
0074
FEB8
006E
003A
007C
0057
FFB2
FFA3
FFA3
FFF1
FFED
00AC
FFFD
0067
0016
0011
FF46
FE1C
FF70
FF6A
000A
0017
000E
0014
0006
0004
000B
0009
0010
0006
000A
000C
000C
000C
0011
0008
0002
000D
000B
0012
0007
0001
0009
0007
0013
000B
0008
000C
0005
0008
000E
0008
000B
0015
0007
0011
000D
0008
0008
000E
000E
0010
000B
0003
0002
000E
0014
0007
0010
0013
0009
FFF7
FFEF
FFF4
FFF1
000D
0013
FFEC
FFF5
FFF7
FFF2
FFF2
000D
FFF7
FFF0
000C
FFF4
FFF5
FFF6
0013
FFF4
FFF2
FFF0
000E
000B
FFF5
000B
000C
FFF7
FFF4
FFF0
0010
FFEC
FFF0
0015
0009
FFF0
FFF4
FFEF
FFF2
FFED
000F
FFEF
FFF1
FFEC
FFEE
FFF2
000C
000F
0011
0010
FFF6
FFEC
FFF1
0005
000C
0005
0007
000A
0018
000A
FFF9
0006
FFFA
FFF7
0014
0010
0001
FFE5
0012
FFFF
FFFA
000A
0013
000B
FFFA
001A
000F
FFEB
000F
0012
0011
000A
0012
0017
0003
0006
0007
0006
002E
000B
0014
000F
0008
0006
0010
0006
0009
000D
000D
0014
000C
0010
0004
0004
000E
0006
0009
000E
0007
000B
0000
000A
0001
000A
000C
0010
000B
0002
0009
0005
000F
0003
0008
000A
0008
0004
0003
0006
000A
000B
000A
000C
000F
0013
0007
0004
0005
0006
0004
0004
0005
000C
0009
000E
000C
FFFE
0129
FFE8
0025
FF44
0022
FFC6
FFD1
FEE9
FFE9
0005
009A
00B6
004F
FE98
FF5F
FF99
FF1D
FF00
003C
001A
FF64
FF92
0025
FFA6
FF72
FE76
00BC
FFA6
FF17
FFE2
0006
FF93
FF4B
FF9C
002A
FF7D
FF4E
FF66
FFAB
000B
0004
FF7D
FFE4
FDF6
FFA8
0049
FFDF
FFAC
FFF4
004F
0055
000C
FFFB
004E
0036
FFFA
0052
FF8E
004C
FFF8
0060
000A
002E
FFC3
001D
FFF4
0064
FFFE
FFF5
0057
0057
0053
004B
FFD1
0079
0000
FFE2
FFE1
0048
FFF0
0005
0093
0014
000F
006B
FFEF
FF9E
005D
007A
002E
0006
0029
FFA7
FFB2
0009
0038
000A
000F
0010
0010
0007
0006
0009
0004
0014
0005
000C
0004
000D
0009
0008
0004
FFFD
000D
0004
000A
0006
000B
0000
000A
0008
0005
0008
000F
000B
0017
000F
0005
0004
0004
000F
0004
0016
000D
0011
000D
0004
0009
0004
0005
0008
000F
0009
000E
000F
0009
003D
0074
0091
0024
0083
0090
00C5
0045
008E
0043
00D2
0078
0021
FFFA
FFB1
FFEE
004A
000D
0033
00D6
0025
FFC2
FF6E
FFF2
000F
0050
00C1
00A1
0063
007B
003D
0063
0092
00C2
00CC
0002
004D
FF8F
FFC3
FFF8
0064
0128
0042
FFDA
003F
FF90
FEF9
00ED
0083
009D
0048
002D
FFE2
FF8D
FF6F
0017
0090
003D
0074
FFD3
0048
FFEA
FF6E
00D3
0086
0073
FFBA
FFD0
FF9E
FFD5
00CE
0001
FF9E
FFCD
FFEF
006E
FFAD
FFC3
FFBB
FFA5
FFA9
FFB7
0072
0011
0004
0025
FFC3
FFBC
FFD1
FF6E
FF8C
004E
004B
0010
FFE1
0005
FF6B
FF99
FFB1
00CC
FFA6
003D
FFAF
FF41
004F
FF60
FFA2
FFE7
0010
FF9C
0097
0083
FFDA
FE7E
0001
FFE5
FF93
0011
FF4F
FF1C
FF14
FE72
FFDA
FFED
FFE1
FF97
0005
FE29
FE3C
FFEC
FFCF
009A
0099
FFD1
FF04
FF03
FFE3
FFB5
FFD3
FFDA
FFF9
FFF0
FFE5
FFE3
FFCA
FFC3
0014
0009
000A
0007
0008
0007
0004
0002
0011
0003
000D
0012
0011
FFFA
FFEF
0006
000B
000C
000F
0010
FFF5
FFF0
0000
FFFF
000A
0002
0016
FFF7
FFF8
FFFF
000B
0000
0005
0015
0013
0000
000E
0009
0002
FFFC
FFFA
0008
0011
0015
0016
0010
0001
FFF7
0014
000C
0013
0010
000F
0001
FFFF
0001
0001
0019
FFFF
0003
0004
000D
0008
0009
0000
FFFF
0008
0007
0004
0003
0006
FFF8
FFFC
FFFC
0002
0008
000B
000B
0007
0002
0006
000B
0006
000D
0016
0015
000C
0008
0003
0004
000E
0013
0007
0005
0004
0004
0007
000E
0007
0018
000D
000C
000F
0008
FFE9
000E
000E
000D
0007
0017
0011
FFE6
000D
000D
0016
0013
0005
FFEE
000F
000C
000F
0007
0008
000E
0013
000A
0011
000D
000B
000F
0005
FFEA
000F
0007
0010
0014
000C
000D
0007
000C
000D
0003
0009
0005
0004
0006
0010
000E
007A
000D
FFD6
FFAD
FF87
FFB7
FFDC
FFCC
FFE8
FFB7
0009
0038
0007
0038
FFCD
FFB8
001A
0088
FFF9
FF8D
FF70
FEB9
FEEA
FFFC
003B
FFAF
0027
0037
FFB4
FF5E
FFF8
00A9
004E
0070
0070
0025
0039
0011
003A
0062
0076
FFAC
0010
FFF7
FFFB
0035
0024
0088
FFC6
0004
000C
0003
0006
0005
000B
000E
000F
000F
0005
000A
0015
0003
000D
0011
0005
0003
000A
000A
0009
0009
000B
0009
0001
0003
000E
000F
0005
0005
0000
0000
0006
0009
0008
0012
000D
000B
0000
0003
000A
000F
000A
000C
0012
0001
0005
0010
0006
0007
0009
0010
0015
0009
000A
0005
000C
0004
000B
000F
000A
000E
0006
000B
0009
0002
0003
000F
000D
0004
000D
0003
000D
0004
0008
0004
000F
000E
0015
000D
0008
0002
0006
000B
0017
000C
000D
000E
0006
000E
0009
0016
000C
0007
000B
000A
0005
0009
0011
FFFA
0011
000D
FFF5
FFED
000A
FFF0
FFFF
000D
FFEB
FFF0
FFF0
FFF8
FFED
FFEE
FFEC
FFF6
FFF3
FFED
000F
FFF3
0014
FFF3
FFEB
FFF6
FFF3
FFEA
0014
0006
000F
FFF3
FFF3
FFEF
000A
FFEE
FFF7
000B
000D
FFEC
0014
0008
0012
0015
0004
FFEF
FFF3
FFEF
FFFE
FFED
000F
0014
0014
0010
0004
0014
000C
0016
000F
0004
000A
000A
000E
000B
0018
0019
0003
0005
0005
001E
0005
0015
0019
000B
0008
000E
0014
0009
0009
0007
000C
0003
000E
0021
000B
0011
000B
0007
0000
0007
0023
0012
0017
0018
000F
0005
FFFE
0013
0011
00B3
0031
0042
0000
0044
FFF6
00C4
001B
002A
0055
FFA0
FFE5
001A
0045
0018
0098
FFC9
FF42
FFD2
008D
008D
FFA9
004C
FF9D
FF68
FFBF
00AE
00BE
0094
00D3
FF7E
FF73
0041
FFDB
0004
003F
00DB
0079
0029
0011
0042
FFB4
FFCE
FF92
FE8A
FE54
FFA3
0018
0061
0009
000D
000F
000A
0014
FFF3
004D
0012
FFF4
FFF6
FFF1
FFEF
FFF7
FFC0
000A
FFF6
FFF7
000D
0045
FF68
FFD9
FFF4
FFEE
FFF4
FFED
FFF5
FF7E
0041
000B
FFEB
000A
0009
FFFB
0022
FFDC
FFF3
FFEF
FFEF
002E
FFFE
000E
FFC8
000B
FFED
FFEE
FFFC
FFC7
FF90
0050
0009
0000
001B
FFD0
FFC4
FFF1
FF9C
0015
0014
0008
0008
FFEC
FFBA
FFE2
000C
FFFB
FFEA
0002
FFEB
FF9C
FFCF
FFF9
FFFA
0001
FFF6
FFF2
FFDB
FF0A
0011
0000
FFF3
0033
0009
0034
FF61
0017
FFF9
FFF6
FFF2
FFAE
FF96
FF71
FFEB
0009
FFEC
FF7D
FFDD
FFB0
FF85
004B
003B
FFEE
FFEC
0031
0042
000E
000D
FFCF
FFB7
FFB4
0000
FFE4
FF56
FFF9
0015
0001
0015
0020
FFB3
0022
FFDC
FFEA
FFF1
FFEE
001B
0033
FF9B
FFCF
003B
0013
000C
0011
FFDF
FFFA
0006
FFE4
FF7F
FFAB
FFC5
FFEF
002A
000B
FF78
FF88
FFC5
FFCA
FFED
FFEC
0015
000F
FFF0
FFF5
FFF5
0004
FFFB
FFEC
FFF0
FFEF
FFF6
FFED
FFF7
FFFE
FFEF
FFF3
FFEC
FFEF
FFEB
FFEE
FFF4
FFEF
FFF1
FFF6
FFF4
FFF1
FFEF
FFF1
000D
FFF6
FFEF
FFF1
FFF5
FFF5
FFF4
0014
000E
FFEE
FFEF
FFF3
FFF3
FFF4
0015
000A
0010
FFED
FFEF
FFF0
FFED
FFA4
001C
0047
0095
0032
0005
FF82
0031
0046
00BE
006F
FF43
FFEF
FFA6
006E
0060
008C
FFDC
0013
0037
FF49
000C
00D5
00E0
FFE1
FFBB
FFF4
FF5E
FFF2
012F
002A
FFD5
0041
FF8B
FE6D
000B
004C
FF3E
FE79
FFDF
FFFF
FF01
00EF
0027
0026
FFE5
FFF9
FF0E
FF66
000D
0015
000D
0008
0008
0001
FFF4
000F
000B
000C
0003
000C
0002
FFFC
FFFD
0007
0003
0000
0005
0000
FFFA
000B
0003
FFFD
0008
0009
000C
000A
0014
000C
0002
0004
0007
0006
000A
000E
0014
000F
000E
000B
0013
0000
0002
0004
0007
0008
000B
000C
0005
0093
00A5
FF45
FF79
003A
0052
007E
007D
0045
FFDA
FFE0
FFBD
009B
007F
0071
0004
FF9E
FFE6
FFEB
0021
0089
0056
FF9C
FFAE
0000
0026
FFEC
005D
004A
FF93
FFE2
FFEB
FFE8
0086
0072
0060
FF88
FFE7
0000
003E
006B
008A
008A
0008
FFCA
FF6F
FF6C
FFDB
0070
FFCB
000C
001F
0018
0014
FFFC
0001
0003
0015
0003
000C
0016
0060
0032
000E
000E
0004
000D
0005
0003
FFCA
0009
000F
000A
000F
000A
0050
0011
0029
0019
000C
0010
0005
FFF7
0039
000E
0009
0005
0008
0012
000B
0004
0009
0013
000A
000B
000D
0014
0004
FFEE
FFEE
0014
0007
FFD8
FFC3
FFED
FFF3
FFD1
FFE5
FFFA
FFE3
FFF3
FFEF
FFBF
FFAB
FF99
FFC0
FF8E
FFCF
FFE6
FFD4
FFD8
FFC5
0002
FFF3
FFFE
FFF2
FFEB
FFBC
FFA0
FF96
FFA8
FFF2
FFF7
FFF3
FFCB
FFEC
FFA2
0008
FFCA
FFCF
0004
FFE1
FFD7
FFDE
FFEA
FFEF
FFEB
0058
0063
003E
003C
0035
0027
0038
0054
0055
004A
0041
0022
0054
003A
0027
001A
0015
004C
0016
0018
0031
FFFB
FFCC
0012
0069
0077
001E
000F
0080
002D
0023
002C
000E
FFDE
0039
007C
FFD6
FFD6
004C
0045
0018
0042
005D
0041
0038
0034
002D
FFEA
0040
000A
0011
0009
0002
0007
0002
0004
0002
0009
0006
000E
0007
0006
0000
0004
0000
0002
0002
0005
000A
0003
0010
0005
0006
0000
0004
000D
0002
0010
0006
0005
0008
0009
000F
0005
0014
0011
000D
0002
0005
0014
0003
0007
0015
000B
0003
0015
0019
0000
FFED
FFF0
FFF0
FFF1
FFEE
FFED
FFF2
0013
0015
FFEF
FFF7
FFDB
FFCB
FFF4
FFF7
FFF4
FFF3
000A
000A
FFF8
FFFD
FFF1
0015
0013
FFF2
FFEF
000D
FFE3
0011
FFED
0012
FFF4
FFF0
FFF5
FFFE
0011
0014
0015
000F
FFF1
FFEC
FFEB
FFF2
FFED
FFF0
FFF3
FFA1
FFF6
FFF0
FFE6
FF64
0028
FFD6
FF80
FFA4
FF2E
0016
000A
FFFB
0073
000C
FFC4
FF15
FFA7
008F
FFF4
FF92
FFE5
009C
FE62
0021
FF79
FF56
FF8D
0014
0024
FF11
0079
FF39
FF7C
FF92
FFBB
FF36
FEA0
FFF8
FFEB
0035
FE84
FF66
FF87
FF3F
FFD0
FFAC
FFA3
FF3C
00DD
FFDE
FF2B
000A
000A
0006
000A
000B
0005
0009
000A
0008
0010
000E
0007
0009
0008
0011
0013
000F
000E
0010
000F
000A
000B
0003
0011
0012
0008
0008
0007
0005
0003
000F
0005
000D
0013
0009
0004
000E
000F
0008
0014
000E
0011
000F
000A
0002
0010
000A
0012
0008
FFEE
FFF4
FFEF
0012
000A
0012
000B
FFF3
000D
000F
000D
000C
000A
000F
000D
000E
000C
FFF5
0008
0013
000E
0012
000A
000A
000D
FFF1
000B
000C
FFEF
FFEB
000D
000F
000E
000F
0015
FFEC
FFEE
000B
0011
0009
0014
0013
FFF0
FFF1
0009
000C
000D
FFEB
FFF6
FFF2
FFF4
FFF1
FFF4
0010
0009
FFF3
FFF8
0007
0002
FFFC
0000
FFFC
FFF8
FFF8
0002
0008
FFFE
FFF9
FFFE
FFF5
FFF9
FFFF
0003
0001
FFF4
FFE8
FFD8
FFF5
FFF6
000A
0009
FFFE
FFF5
0001
FFEA
FFF3
FFE6
FFF4
FFEA
FFF0
FFF5
FFF8
FFF8
FFF7
FFFD
FFFC
FFF6
FFF9
FFF9
FFF7
FFEC
FFF5
FFF3
FFF4
FFF9
FFF5
FFF8
FFF4
FFF9
FFF9
FFEF
FFF3
FFF2
FFF7
FFF0
FFF1
FFF4
FFFB
FFF6
FFF2
FFEF
FFF9
FFF7
FFF9
FFF8
FFF1
FFF8
FFF5
FFF5
FFF7
FFF8
FFF2
FFF1
FFFB
FFFA
FFEA
FFFB
FFF5
FFF0
FFF8
FFF7
FFF3
FFF7
FFEF
FFF2
FFF3
FFEF
009E
FEC4
FFA4
FF80
FF7E
FF38
0118
0068
0042
0044
0076
0057
001F
000D
0016
0038
FFEB
00C1
00AE
0007
FF97
000D
000B
FF66
0047
00BA
007E
FFA4
FFD1
FFDF
FFBD
FFDF
FF96
FF8B
002E
FE93
FFE2
000F
0018
0024
FF9B
002E
FF51
FF2A
FFF2
002F
FFD1
008A
FFCA
007A
0060
005B
0022
0030
004C
009D
0065
0000
FFEC
FF8B
008B
FFF1
0098
0058
002F
FFF9
FFED
0058
0076
004D
001E
002F
FF66
FF9D
0029
008C
0056
0056
002C
FF44
FF90
FF80
001E
0050
0072
001D
FF80
FF9B
FF86
FFC5
004D
006F
0082
004D
FF71
FFA9
0008
0062
FFF6
FFF0
FFE8
FFFA
FFF1
FFF0
FFF7
FFF0
FFF9
FFF5
FFF6
FFF7
FFF6
FFEF
FFF9
FFF3
FFF9
FFF5
FFF6
FFEF
FFF1
FFF6
FFF0
FFF6
FFF7
FFFB
FFF7
FFF7
FFEC
FFEC
FFEE
FFEE
FFED
FFF1
FFF1
FFF4
FFFA
FFF3
FFF3
FFF5
FFF4
FFF5
FFF2
FFF4
FFF3
FFED
FFF0
FFF5
FFF1
FFFE
FFCA
FF75
FFEA
0011
FFA7
0058
FF88
001D
FF7F
FECB
FF2E
FFDE
FFD8
007A
0010
001A
FF98
FE9A
FFAC
FEA3
000D
FFF7
001E
0013
FF5A
FEA7
FFAA
0053
002D
000E
FFBF
FF5F
FEF0
FF76
0039
FFC1
FFC2
FFCE
001E
0078
FFFC
FF77
FF06
0026
0018
FF9F
00DA
FFAD
000B
FF61
00F4
0176
00EC
00B3
0076
004C
FFFD
00E0
0038
FFAB
0024
0042
FEF5
FE35
FF05
FF7F
FFBF
FFFE
FFCE
FF63
0019
0083
006A
FFB2
FF75
FF9B
0094
0041
0070
00AD
0036
003E
FFD7
00B9
FFDC
004A
FFEA
FF5D
FFD8
0011
FFB3
FFA3
FF1F
FF77
FFB8
0058
00B3
0060
0044
010F
FFC9
FFE0
003E
0030
FF9B
009F
0035
000E
0043
00AC
0011
003A
000B
0028
FFAA
002B
FFFC
FFA8
0069
0003
FC12
FF69
FFEE
FFE3
FFDA
FFE8
FF36
FF41
0006
0032
FFEB
001E
0077
FFC2
FF5E
FFA6
FFF0
005A
0057
001D
0080
000D
FFCD
001D
000C
0030
FFF4
FFF4
FFF8
FFFB
FFF9
FFFC
FFF6
FFFA
FFF1
FFF6
FFF0
FFFC
FFF4
FFFA
FFFD
FFF9
FFF2
FFF9
FFFA
0002
0005
FFFB
FFFA
0000
FFF8
0000
FFFE
FFFA
FFFD
FFF0
FFF7
0004
0005
0004
0003
FFF9
FFF0
FFFC
FFF3
0002
FFFD
FFFC
FFF0
FFF3
FFF7
FFFE
000A
FFFB
000C
FFFA
FFF4
FFF1
FFF8
FFFD
FFF3
FFF8
FFF9
FFF9
FFF2
FFF4
FFF6
FFF6
FFF4
FFFB
FFFF
FFF7
FFF4
FFF6
FFFC
FFFD
0005
FFF8
FFFE
FFF6
FFF2
FFF7
FFF4
FFFB
FFF6
FFF9
FFF9
FFFD
FFF8
FFF7
FFFE
FFF4
FFF1
FFF4
FFF1
FFFA
FFF0
FFF6
FFFD
FFFE
FFF1
FFF1
FFFB
FFFE
FFF2
FFEA
FFEB
FFF9
0002
FFFD
FFED
FFF4
FFF8
FFF6
FFF1
FFF8
FFF0
FFF3
FFF2
FFFE
FFF2
FFEF
FFEB
FFF0
FFF7
FFFC
FFEA
FFF0
FFFB
FFEF
FFF2
FFF3
FFF5
FFF0
FFF0
FFF3
FFF6
FFEA
FFEE
FFF8
FFEA
FFEE
FFF2
FFFA
FFF0
FFED
FFF5
FFFB
FFF9
FFF2
FFF9
FFFA
FFF6
0006
FFED
FFF1
0023
00A5
00AF
0088
0006
FFCE
0010
FF85
0031
0058
FFE9
0060
0069
FFFE
FF57
FF6F
FF3F
FFD2
0082
0015
FFA7
FF87
FF77
FDB9
FF58
FFBD
0079
008C
003C
FF60
FFFA
FFD6
005A
0028
0080
0038
FF42
FF96
FFD1
FFA1
00A7
0011
FFDE
FF25
FF76
00AF
FFF1
FFF4
FFF0
FFF3
FFF8
FFF5
FFF2
FFF1
FFF4
FFF3
FFF4
FFF9
FFF0
FFF5
FFF0
FFFA
FFF6
FFF5
FFFA
FFF1
FFF8
FFF2
FFF8
FFF6
FFF2
FFFA
FFF0
FFFA
FFFA
FFF0
FFF1
FFF7
FFF0
FFF7
FFED
FFF7
FFFA
FFFA
FFFA
FFF8
FFF7
FFF5
FFF1
FFF2
FFFB
FFF9
FFEF
FFEE
FFF3
FFF3
FFEF
FFF0
FFEA
FFF9
FFFB
FFF9
FFF2
FFF1
FFFA
FFFB
FFF7
FFFA
FFF3
FFFB
FFF5
FFFB
FFF3
FFF2
FFFA
FFF2
FFF3
FFF4
FFFB
FFF2
FFF2
FFF8
FFF1
FFF1
FFF6
FFEE
FFF6
FFF0
FFF9
FFFB
FFF2
FFF5
FFEF
FFFB
FFF7
FFFA
FFF8
FFF9
FFF1
FFF5
FFF2
FFF2
FFF2
FFF2
FFFA
FFF5
000B
FFEB
FFEC
0015
000B
0003
FFF1
0009
0014
0009
000A
000B
FFED
FFF2
000F
0012
000D
0012
000D
FFF6
0013
0013
0012
000B
000E
FFFE
FFED
FFF6
FFF4
0013
0009
FFEE
FFF5
0010
FFF4
0002
000C
000A
FFEB
FFF6
FFF8
FFED
FFFA
0010
FFF4
FFF4
0017
FFF5
FFF6
FFF6
FFF1
FFF5
FFF4
FFF6
FFF3
FFEE
FFF6
FFF6
FFF0
FFFB
FFF2
FFEA
FFEB
FFF9
FFEF
FFF9
FFF9
FFF0
FFEF
FFF9
FFF6
FFF0
FFF0
FFFA
FFFA
FFF7
FFF4
FFFA
FFED
FFF2
FFEA
FFF9
FFF1
FFEB
FFF1
FFFA
FFF5
FFF9
FFF8
FFF5
FFF1
FFF1
FFF0
FFF8
FFEE
FFEB
0065
0010
FFB0
FF6F
FF99
008F
0022
00B8
004E
FFA5
FFD2
000C
0089
FF88
005D
FFD8
0049
0041
0055
001C
0013
FF8A
0033
00A1
0007
0048
FF76
FF7B
0000
FFEB
FF02
FFBA
FF4C
FFF3
FFE6
002A
FF2E
FFBD
FFBF
FF7D
FF4F
FFFE
FFAB
FFEF
0076
008C
0019
0008
005C
FFF1
000F
FFF4
0037
0011
FFDA
000A
FFF2
000C
000E
FFC0
0004
FFE7
0055
FFEF
0009
000C
000A
003A
FF43
0044
0009
0011
FFF0
000E
0009
0023
0088
0015
FFEF
0010
0002
FFF6
001B
0036
FFED
FFEB
000B
0011
0044
FFB7
FFE0
FFF3
0014
0003
0090
FFE6
FFCD
003A
FFE7
002C
FFFF
FFF9
0001
FFF3
FFF6
FFF5
FFF7
FFF4
FFEF
0000
FFFA
002E
0006
FFF9
0003
FFED
0003
FFCB
FF61
FFFB
FFFF
FFFE
FFEE
FFE9
FFEF
FFD9
FFEE
FFE9
FFF8
FFE9
FFF2
0000
0065
FFE6
FFEE
FFE9
0009
000D
005A
003A
0015
FFF0
000B
000C
0000
FF8D
FF93
FFEA
FFED
FFE4
FFDC
FFCC
FFB7
FFA4
FFF6
FFF9
FFF5
FFE0
FFD0
FFFD
FFA5
FFFF
0000
FFFC
000F
0036
FFDC
FFCF
FFFA
FFFB
FFF4
0010
FFDF
FFCD
FFB2
FFE5
FFE5
FFF3
FFE8
FFE1
FFB6
0004
FFE0
0008
0009
FFE7
FFB2
FFE7
0038
FFDB
0000
0044
FFEF
0027
FFF5
000E
0012
0013
0014
000F
0009
0007
000A
0010
000B
000A
000E
0012
000B
0009
0009
0014
000B
0013
0014
000E
0015
0008
000D
0008
000F
0009
000D
0009
0015
0010
000B
000E
0009
000A
000A
000C
0013
0015
0009
0013
0009
0015
0012
0015
000F
000A
000E
0010
000B
00C6
003C
0004
FFA7
FFB2
FF99
0022
FFD4
0016
FF6C
FE5A
FFF3
FFA7
00A7
FF94
002A
FFDB
000C
FF22
FF3F
00DA
0077
007A
FEC1
FFCA
FFE3
FFBF
00AE
0064
FF7A
001D
FF8F
0006
FFBB
003B
0036
FFFA
0023
00FD
00AF
FFF8
0027
FF8D
FFD1
FFEC
0007
006A
0029
FFF5
FFF2
FFF0
FFF2
FFF7
FFF5
FFFF
FFFA
FFF1
FFF0
FFF8
FFF1
FFFC
FFF7
FFF7
FFF4
FFF8
FFFC
FFFD
FFF5
FFF9
FFF5
FFF5
FFF3
FFF3
FFF5
FFF3
FFFC
FFFB
FFF5
FFF4
FFFA
FFF4
FFFB
FFFA
FFF9
FFF1
FFF4
FFF5
FFF2
FFF8
FFF5
FFFD
FFF8
FFF3
FFF4
FFF1
FFFB
FFF7
FFF9
006C
0036
0013
002C
0002
0051
0034
0038
003A
FF63
0075
FFBD
0058
FFC9
0019
FFD9
FFF2
FFBF
000D
FFB7
FFAC
FFE2
0029
FFF9
FFDF
0007
003E
006D
FFE5
0008
FFE7
000E
003F
0042
0055
FFF4
FF93
0055
FFD9
0067
00BD
00A3
0040
FFFA
0006
000B
0025
FFC9
003D
FFF9
FFF6
FFF2
FFED
FFEF
0002
0000
FFFB
FFFE
FFF5
FFFC
FFF3
FFF4
000C
FFFA
FFF3
FFF8
FFF2
FFFA
FFFB
FFF0
FFF5
FFF1
FFF9
FFF5
FFF5
FFF3
FFE7
FFF5
FFEF
FFF6
FFF4
FFF7
FFE6
FFE2
FFF8
FFF7
FFFA
FFF2
FFFB
FFE4
FFEE
FFFA
FFF2
FFF0
FFEF
FFFA
FFF8
FFF4
000A
0011
0008
FFA3
FFCE
0010
000B
0012
0009
0013
FFDD
0001
000A
0007
FFD0
FFFA
FFE8
FFE2
FFFA
0005
000E
0005
FFFA
000B
FFF4
FFF8
0003
0008
000A
0013
0002
FFF7
FFBF
FFF8
000D
FFFB
0000
0000
0006
0006
001B
0008
FFF0
FFFC
FFF5
0007
0014
000A
0010
FFEB
FF95
FF98
0003
0022
FFE7
FF7E
FFBE
FF9D
FFA1
FFE9
0017
001D
FF6B
FFA9
FF8B
FFA2
FF99
FFD7
FFFA
FF69
FFD7
FFA4
FFA8
FF84
FF97
FFA7
FF93
FF7D
FFA1
FF85
FF8D
FF87
FFB8
FF92
FF8E
000C
FF69
FFED
FF9C
FF8F
FF9B
FFC5
FF9E
FFDA
0005
FFAB
FF8C
FFA4
FFF9
FFF0
FFF2
FFF3
FFF8
FFFC
FFF6
FFF3
FFFA
FFFA
FFEF
FFF6
FFFA
FFFB
FFFA
FFF6
FFF5
FFFC
FFF3
FFF8
FFFB
FFF6
FFF1
FFF8
FFF4
FFFA
FFF7
FFF9
FFF4
FFFA
FFF7
FFFA
FFF5
FFF7
FFF0
FFF2
FFF2
FFF1
FFF7
FFF6
FFF1
FFF2
FFFB
FFEC
FFF0
FFF0
FFF1
FFF8
FFF6
000D
0009
000D
0015
0012
0013
000D
0010
000D
000C
0010
000D
000C
0009
000A
000A
000A
0013
000F
FFEC
000D
0009
000F
000E
0010
FFE8
FFC1
0009
000A
FFF0
FFF2
FFF3
FFD9
0012
000B
0010
000E
0011
FFF2
0010
000C
000D
0010
000C
000D
FFC5
0021
000E
0007
FFF7
FFD3
003D
0036
FFE3
FFC3
00AE
009E
FFE2
011C
0033
FF65
0027
008D
00B4
FF78
FEBF
FF3C
FFED
005A
00BA
FF3D
FFCA
002A
FFE4
FFD6
00BE
0083
005E
FF90
FF2A
FF94
FF84
007F
00DE
FF7B
FFBC
0014
0089
003B
003C
00AC
0051
00B0
FF62
008C
005F
FF0F
FECA
FFF2
FFF5
FFF0
FFF6
FFEF
FFFB
FFF1
FFF1
FFF0
FFF1
FFF7
FFF6
FFF3
FFF0
FFF2
FFF2
FFF2
FFF2
FFED
FFF7
FFF8
FFF6
FFFA
FFF6
FFF6
FFF1
FFF6
FFF2
FFF7
FFF9
FFE9
FFEE
FFED
FFF3
FFF0
FFF0
FFF1
FFFA
FFEC
FFF4
FFEF
FFF1
FFF3
FFF3
FFF1
FFF4
FFF7
FFF8
FFF0
FFF3
FFEE
FFF5
FFEC
0013
FFEC
FFEC
FFEF
FFF5
FFF4
FFF0
FFF2
FFED
FFED
000F
FFF3
FFF1
FFED
FFF0
FFF7
FFEE
FFF6
FFF2
FFF4
FFEB
FFEB
0009
0012
0014
FFF1
FFF6
FFEC
FFF2
FFF7
FFEC
FFF5
000B
FFF0
FFF0
FFED
FFF5
FFEB
FFED
FFF1
FFF4
FFF5
FFED
FFF0
FFF5
FFF4
FFF7
FFF2
FFF2
FFEC
0012
0010
FFF9
FFF7
FFF5
FFF7
FFF7
0001
FFFF
FFFC
FFED
FFF4
FFEC
FFF7
0016
000E
FFF2
FFF7
0000
FFF4
FFF2
FFEF
FFEC
FFF9
FFEC
FFF1
FFF6
0008
FFF8
FFB3
0011
0016
FFFB
FFEE
FFFF
FFFD
FFB4
FFFC
0005
000A
FFFE
000B
FFF3
FFED
0004
000A
0005
0005
0007
0009
001B
0001
000B
0004
000E
000F
000E
0015
0003
000D
000A
0008
FFFF
0010
000E
0005
0005
0008
0006
000A
0003
0005
0008
0012
0004
0000
000D
0011
0006
0002
001B
000A
0006
000A
0011
0013
000A
0002
0007
0010
0013
000A
0008
FF02
FF95
FEFF
FF84
FFF8
FFD0
0146
FFB0
0075
00BD
0042
FE1E
FF30
FFB9
006D
003F
001D
0003
FE5B
FFDD
FF72
FFEB
0033
005C
FFEC
FF3E
0002
FFA3
FF78
FF66
FFEC
0005
005D
002E
FFEA
FF44
FF93
FEB4
FFA1
002F
0044
FFC4
00A1
FFB2
FECE
FF5A
FF64
FFD6
FF86
0007
FFDE
004E
005A
002E
0039
0027
000F
FFED
0020
0006
FFCF
FFFE
0035
0016
003C
0028
FFA3
FFA1
FFFF
0018
000B
0031
0001
002F
0012
001A
FFDF
FFF5
000A
FFBB
FFCE
0008
FFE6
FFC0
FFE9
0027
0049
FFD6
000A
FFFF
FFCB
FFDF
0031
0022
FF9A
FF6C
FFDF
FFF5
0006
0000
0000
0000
0012
0013
0010
0000
0006
0002
0007
000C
0014
001D
0006
000E
000C
0004
0004
0007
000A
000F
0002
FFFE
0003
000F
000C
0003
0009
000A
000A
0012
000B
0009
000C
0010
0018
0017
001C
0012
000C
000E
0009
0009
000C
0008
000F
000B
0012
FFFC
001C
FFDA
FFDB
FF0A
FF08
FF68
FFF9
0051
FFF2
FEDD
FDBC
FF18
FF86
FFAD
0038
001C
0003
FFFE
0075
FF3A
FFF3
FFD5
0035
00C6
0026
FFFD
000D
FF1B
FF5C
FF7A
0069
FFE2
0018
0026
FF68
FF14
FF95
FFAB
FFE0
0049
FFBF
00AF
FF81
FF9B
FF92
FFB5
FFF8
0023
FF33
0009
FF6A
FFFE
FEDD
FF35
FEF5
FF4B
FF38
FFA8
00C5
FF6F
FF3F
FF74
FEE0
FF90
0099
004E
00F7
0059
0069
0010
0021
0025
FFD4
009A
00CF
00A2
0009
FFDD
FFFB
FF93
FFF2
0080
FEEA
FF56
FFDE
0009
FFDD
FF6E
FF6C
FF56
FF59
FFFE
0050
FFF3
FFA9
FFA1
FFD3
FFA0
FF80
00A6
FFC5
0004
FF80
FF09
FF70
FFB3
FE91
0000
FF60
FF7A
FE97
0027
0036
006A
005B
FFDC
FFCA
FFBE
FFAF
FF9B
FF4D
0020
002B
FFB9
FFE6
0007
0014
FE18
FFE3
FFFE
0056
FFAA
004D
FF68
FFA5
FFD7
FFE7
FFD4
FF98
FEF0
0023
0003
FFBA
0039
FF7C
FFAE
0005
FFFB
FFF6
FFF5
FFFC
0005
0005
FFF8
FFFF
FFFB
FFF7
FFEF
FFF6
000D
FFF9
FFF8
FFF6
FFEE
FFF1
FFF9
001B
FFFF
FFF4
FFF8
FFF7
FFF8
FFEF
FFF4
FFFC
FFF3
FFFA
FFF3
FFFB
FFF0
FFF7
0009
FFF6
FFF1
FFF7
FFF5
FFEC
FFF1
0000
FFFF
FFFB
FFF8
FFF2
FFF7
FFEC
FFF1
FFFD
FFF7
FFF6
FFF1
FFF5
0000
FFEF
FFFA
FFF6
FFFE
FFF6
FFFA
FFFA
FFF4
FFF1
FFF6
FFF5
FFFA
FFFA
0000
FFED
FFF6
FFF8
FFFA
FFF1
FFF7
FFEE
FFF7
FFF1
FFF8
FFF3
FFF9
FFFF
FFF1
FFF5
FFF4
FFF6
FFF5
0000
FFFE
FFF6
FFF4
FFEE
FFF4
FFFC
0006
0005
FFF4
0003
000A
000D
FFEF
000C
FFF0
FFF2
0004
000D
0009
FFEA
000F
000B
0007
000C
0013
0007
FFED
FFEF
FFF3
0011
0000
0000
0008
000D
0011
FFF0
FFEE
000A
0014
000A
0010
FFEE
FFF2
000C
000C
000E
0007
000D
FFFA
0007
0006
000C
0003
000B
000D
000C
000E
000C
FFAD
FFE3
FFAF
FFCA
FFFC
FFC9
0054
FF23
FFB4
FFD4
FFD9
FFD3
FF62
FFEF
FF84
FFD9
FFBD
FEF6
FFAB
0077
00C4
FFE6
FFF8
FF7B
FFC8
0023
00D5
00F1
001D
0005
0000
0037
003B
0048
FFB2
FFCB
006F
0080
000A
001D
FFA2
FEF7
FFB7
FF6A
FF9A
FFF1
0028
0021
FFDC
000D
000B
000C
0006
0006
001D
0007
0009
0009
0005
000B
000C
000B
001E
FFFD
0004
0005
000B
0011
000A
000E
000E
0010
000A
0005
0008
000B
000B
000C
000C
0000
0004
0009
000C
0006
000D
000D
000C
000D
000C
000D
000F
000C
0010
0004
000E
0009
0008
0007
FFFF
0005
0003
0000
0002
0014
001D
0001
0003
0002
0004
FFFF
FFFB
000C
0006
0000
0001
000B
0004
FFFE
0000
0004
0003
0002
0000
0002
FFF8
FFF6
0003
0013
000A
0000
0004
0005
FFF9
000D
0007
000B
0000
0000
0004
0001
000F
0011
0008
0001
0008
0006
0005
FFFC
FFED
FFF0
FFF5
FFF8
FFF0
000F
0000
0001
FFEE
FFF5
FFF0
FFEE
000C
FFF7
FFEC
FFF5
FFF7
FFF4
FFF7
FFF2
FFF4
FFEB
FFF6
FFF7
FFF3
FFF4
FFF3
FFEC
FFED
FFF4
FFF3
FFF1
FFF4
FFEA
FFF3
FFF0
FFF3
FFF1
FFEF
000A
FFF2
FFF6
FFF2
FFEB
FFEC
000E
FFED
FFFF
000F
0010
0009
000B
FFFC
0007
001E
0015
0007
0009
000B
FFFC
0006
0018
0007
FFE8
0000
0032
FFF2
FFFD
001B
000D
FFF3
0006
0021
001A
000F
000E
0005
0000
0004
0025
0041
000D
0000
000E
000E
0000
FFF9
0015
FFF0
0007
0006
000A
0008
0004
0001
000E
0006
FFC3
0026
002B
FFF1
FFEB
006C
FF9D
FFDD
FFBE
FFEB
0042
0003
FFCD
0011
FFB1
FFB3
000D
FF85
FFC9
0088
0086
009A
0074
FF1B
FF5C
FF75
FFA2
0014
00DC
0051
FF9F
FFC8
0021
FFEC
FF92
004D
002B
00CB
0028
FFF7
002D
FF9D
006C
FF68
FF1B
FFCA
001C
0005
00CD
FFEF
FFEE
FFF5
FFF7
FFF4
0012
FFBF
FFF3
FFEB
FFF1
FFF2
FFEE
0009
FFD0
FFF5
FFF1
FFF7
FFEF
FFED
0075
FFF1
FFEE
FFF0
FFF7
FFEF
FFF5
FF99
FFBA
FFF0
000F
FFF0
000F
FFB2
FFA5
FFCA
FFEE
FFF8
FFF3
000C
FFBB
000A
FFC7
FFF1
0011
FFF1
0059
FFE5
005C
FFB4
FFED
FFEA
FFF3
0013
0011
0014
FFB0
FFEE
0004
001A
0014
FFE2
0066
FFD4
FFF6
FFEF
FFEB
FFF5
FFF1
0030
FFBF
FFF4
FFF2
FFF4
FFEF
FFF4
FFFD
0031
FFF0
FFF4
FFBA
000F
0012
FFD3
FF98
FFF7
0010
FFEF
FFF1
002F
FF99
FFAA
FFEC
0011
FFED
0037
0024
0002
002D
FFB7
FFE7
002D
FFDE
FFED
FFAF
FF8D
FFD9
0033
FFCB
FF93
FF8D
FFB3
FF5C
FFEB
0036
FFFB
0030
002C
002B
FFF8
001A
002D
FFF9
0029
0029
FFF0
FFD8
0001
FFC0
FFC8
FFE2
0006
FFD6
FFCA
0065
FF75
FFC3
0005
FFCE
FFB3
FFD9
002E
0066
FFF7
0022
FFE6
0000
FFEB
FFF7
FFEE
FFEB
FFF6
FFF2
FFE5
002D
FFF4
FFF2
FFF2
FFEC
FFF4
FFED
FFF6
FFF3
FFF7
FFF0
FFF7
FFF5
FFF0
FFEB
FFF2
FFF3
FFEC
FFED
FFED
FFF7
FFF0
FFF2
FFF2
FFEE
FFEB
FFF4
FFFF
FFF2
FFF1
FFF6
FFF3
FFF1
FFF4
FFEF
FFEE
FFF6
FFF1
0013
FFF3
FFF0
FFEB
FFF4
FFDA
FFE9
FFC3
FFDA
FFF0
0034
0069
FF25
FFA3
FF4E
0048
003F
0035
010F
0022
004B
0030
FFC9
00CC
004E
0076
007D
005C
005E
0049
00B7
0032
00FE
0024
007A
006B
0082
0085
00AF
00FA
FFF9
000C
FFAC
FEFF
0001
0010
FF37
0025
FFAA
FFF0
FFE8
FFA6
FF06
FFF4
FFF1
FFFC
0000
FFFA
FFFB
FFF2
000D
FFF5
0001
FFFC
FFFD
FFF5
FFFE
0015
FFF3
FFF7
FFF5
FFFB
FFFA
FFF9
FFF6
FFFE
FFFF
FFFE
FFF9
FFFA
FFF8
FFF4
FFFD
FFF8
0002
0000
FFF7
FFFB
FFF2
0005
0002
0003
FFF8
FFF9
FFFC
FFF4
FFFC
0004
0000
0000
000A
0000
FFFC
FF7A
FFB8
0010
FFA8
FFB7
FFEA
FF8B
FFB7
FFD9
FFF8
FFF0
FFC8
FF59
FF5C
FFA0
FF97
FFD2
FFF6
0010
FF5E
0043
FFCD
FF93
FFEB
FFF3
FFF6
FFA2
FF7A
FFF9
FFE4
FFED
FFFB
FF68
FF90
FF8E
FF90
FFC9
FFF4
FFF0
FFF5
FF79
FF76
FF90
FFA9
FFEE
FFF4
FFE4
FFEA
FFBF
0045
0025
0008
0034
0034
FFAF
0006
001F
0005
0001
003D
0051
0006
0006
0035
0006
000E
0013
0001
FFDF
000A
003F
0011
0001
0001
0002
FF8C
FFFF
FFD5
0017
0015
000B
000E
FFBD
FF94
0002
000B
0003
0000
0016
FFF2
FFA5
0006
000E
0007
0000
000B
0004
0007
0019
FFEF
0015
0015
0009
0034
0034
FFEF
0035
002A
0028
FFE2
FFF0
FFEB
FFEC
003D
005B
002A
0035
FFF1
FFEE
0027
002E
0030
0026
0008
0022
0021
FFF7
003F
003D
003B
0012
0000
FFF8
FFFF
0030
0032
0018
0027
FFE3
001C
0001
003B
003D
003A
002F
FFF3
FFF8
0024
003D
0046
0043
005C
0058
0057
002D
0047
004B
0021
004D
0059
0065
0044
0035
0031
0042
0034
0066
0062
FFF7
0046
004F
0041
003D
0044
003A
0043
003E
0039
0058
0036
0036
004E
003C
007A
004C
005E
0061
0034
003C
0048
FFDA
FF9B
006D
0063
0030
004A
0000
FFFB
0004
0004
0004
0019
001E
0000
0000
0008
000C
FFFE
000D
000A
0003
0003
0009
0003
0002
FFFD
0006
0005
0000
FFFC
0005
0000
FFFF
0003
0001
0004
000B
0001
0001
000A
FFFF
0005
000A
000C
FFFE
000A
0006
0007
FFFD
0009
0001
000A
0013
0008
000B
FFF5
FFF3
FFED
FFED
FFF6
FFF4
0011
FFEB
FFF4
FFF0
FFF6
FFF4
0016
0016
FFED
000C
FFED
FFEF
FFF2
FFF0
FFF2
FFEE
FFF5
FFEF
FFED
FFF0
FFF6
FFEE
FFEE
FFF6
FFF7
FFF0
FFEA
FFF7
FFF7
FFEF
FFEC
0010
0009
FFED
0011
FFEE
FFEB
FFF1
FFEE
FFF7
FFEA
FFF3
FFF2
FF8D
0069
FFE4
0044
0093
0041
0068
001E
0005
FEED
FFBD
006F
0097
00DC
001C
FF49
FF1D
FFC3
FFF4
0043
004E
0074
FFD8
0000
00E0
000B
FE72
FF8D
001A
0024
FF08
0033
FF72
FEFD
FF44
FFA8
FFF5
FEF1
FF57
FF4C
FEDA
FE93
FFDA
00E0
FF51
FFE7
0052
FE9A
FF1E
000D
000D
0009
000E
000D
000C
0001
000A
000D
000F
000E
0010
0017
000B
000F
000F
000C
0016
0012
000F
0012
0006
0007
000B
0007
0015
000A
0011
0000
0008
0012
000B
0005
000F
000C
FFFB
FFFF
000B
0016
000E
000A
000E
0012
000D
0003
0006
000D
000C
0016
000E
0010
000F
0011
0010
0013
0015
FFF5
FFF7
FFF2
FFEE
FFF5
FFF2
FFF1
FFF0
0015
0012
0009
0010
0010
0011
0010
0014
000D
0014
000B
FFEC
000E
000A
0014
000B
000D
000A
FFED
FFEC
FFEF
FFEB
FFEF
FFEC
FFF6
000C
FFF7
000C
FFF5
FFF5
FFEC
FFF7
0009
0010
FFFB
FFEC
0008
0014
FFF7
FFEF
FFEB
FFFC
0007
0005
000F
0017
0011
000D
FFF1
FFF1
0001
FFED
FFEF
FFF4
0006
FFF3
0013
000F
000F
0000
0011
0016
FFF8
FFFF
FFF4
FFEF
FFFA
FFF1
FFE2
FFF8
FFF0
0004
0000
FFF9
FFD4
FFE8
FFFF
FFF1
FFEB
FFF2
FFED
FFF3
FFF8
FFFC
FFF6
FFF9
FFFD
FFF3
FFF0
FFEF
FFFD
FFF0
FFF0
FFFC
FFF4
FFF0
FFF0
FFFC
FFFA
FFF7
FFF9
FFEC
FFEA
FFF9
FFF7
FFF2
FFF4
FFFA
FFF5
FFFC
FFFE
FFF6
FFF5
FFFB
FFF3
FFFA
FFFD
FFF3
FFF9
FFF2
FFFF
FFFB
FFF8
FFF9
FFF1
FFFE
FFF2
FFF1
FFF2
FFF3
FFF2
FFF3
0148
00EA
001B
006D
0020
0058
009A
00DF
0052
0015
FFA9
FF16
FEC5
FFAB
0047
0021
FFE9
FF03
FF4C
FFA2
0117
0090
003C
FFFD
FF31
FF67
FFFE
0002
005A
007D
0087
FFC8
FFFE
00C0
FFA8
FFDC
000A
FFCB
FE2F
FF5A
001E
001D
FFA1
FF23
FF80
FEE8
FFAA
FFE2
003A
FFB6
FFA0
FFA6
FF89
FFA6
FF87
FFBF
FFB9
FF96
FF9A
FFE4
FF6B
FF76
FF53
FFC1
FF73
FFBA
0063
FFAD
FFAA
FF8C
FFAB
FF9B
FFC9
FFAB
FF93
FF9E
FFC8
FF7F
FF80
FFF8
FF9B
FFAC
FFCE
FFA1
FF7F
FF78
FF73
003C
FF97
FFDF
FFB5
FFAC
FF74
FFAE
0051
0057
FFDB
FFCD
FFF5
FFFF
FFFE
FFFE
FFFD
FFF4
FFFB
FFF3
FFF4
FFF6
FFEF
FFF2
FFF5
FFF5
FFF0
FFFB
FFF2
FFF9
FFF4
FFFD
FFF4
FFFB
FFFB
FFF4
FFF9
FFFC
FFFA
FFF6
FFF2
FFF5
FFF9
FFFF
FFF7
FFF8
FFFA
FFF7
FFEF
FFF0
FFEB
FFED
FFEC
FFF0
FFF7
FFEC
FFF0
FFF6
FFE9
FFF5
FFF3
FFF6
FFD7
0095
006B
FFD9
FF12
FF24
0026
FFC3
0038
FFE4
005A
FFCA
FF50
FFD8
0039
004F
FFA4
FFD5
FFF8
0053
FFAD
0007
FFEB
FFCE
008B
005E
FFEC
003B
0015
0015
FF76
0098
0093
FFA2
FFB5
006F
000F
000E
0000
FF8F
FF1D
FFF2
0054
00AB
000D
0008
FEFF
FFD1
FFBF
FFF9
0031
FFFF
FF6D
FF60
0093
FEDF
FF85
FFDB
FF99
FEC1
FFC4
FFED
00BC
FFC0
FFD4
FF63
FFAD
00BA
007A
FFC3
FF4F
FEF7
FF43
FF2F
FFD8
FFB7
0090
FF1F
FF27
FFED
FF79
FF48
FFDB
FF61
0028
003C
0059
00CA
003E
FFF5
FDB7
0019
002E
0087
002C
FFF2
FF40
010E
00E6
00DC
008B
006C
FF5F
005F
0080
FFB1
003C
FF63
FF36
FF2B
FFF0
0019
003F
0004
0027
FF5E
FFDE
FFED
0073
007B
FF88
002B
FFE3
004B
FFA3
00B3
FF9D
FEEE
FFF9
0003
0010
001C
002C
001D
FFFD
000E
0003
0008
000D
007D
0005
FF9D
FFFA
001E
007D
FFF7
FFFC
FFFE
FFFF
FFFF
FFFB
FFF4
FFF1
FFF5
FFFB
0002
FFFD
0004
0015
000E
FFFB
FFFE
FFF8
FFEC
FFF6
0015
0000
FFF7
0004
0001
FFFB
0010
0004
FFEC
FFFD
FFFA
0000
FFFD
0006
0009
000B
FFFC
FFFD
0001
000C
0006
0005
0000
FFF7
FFF6
FFE8
FFF0
FFFD
0000
0010
0008
0000
0002
0010
0010
000D
FFFE
FFF4
FFF6
FFF9
FFF2
FFF3
FFF5
FFF7
FFF2
FFFE
FFF8
FFFA
FFFD
FFF1
FFF8
FFFE
0007
FFF5
0000
0002
FFF7
0003
0001
0003
0004
0001
FFFA
0003
000D
FFFB
FFFA
FFF6
0002
FFF3
FFFE
FFF7
0006
FFFF
FFF7
FFF4
FFFA
FFF0
FFF5
FFFA
FFEB
0033
FFFD
FFEE
000B
000D
FFF1
0018
0034
FFF4
FFEF
000D
0014
FFF5
FFEE
FFFB
FFF1
FFF8
FFF6
FFEB
FFFB
FFF4
FFF3
FFF2
FFF7
FFF5
FFF2
FFF2
FFF0
FFF1
FFEF
FFED
FFF5
FFED
FFF8
FFEA
FFEC
FFF4
FFEC
FFEF
FFF2
FFFA
FFF6
FFF1
FFF4
FFE9
FFF1
FFFB
FFD4
0003
0036
002E
0022
0004
FF84
FF6D
FF98
0034
002D
00BE
FFB2
0020
005B
FFE9
FFFE
FFF7
FF2C
008B
00E0
FFA2
FFD5
FF15
FFDF
FFB0
0027
001A
FFEE
FFA0
FF49
FF86
FFE4
FF5F
FF51
FFCA
FF80
FF32
FFD3
005E
0049
0030
0033
FFD2
FFE8
0009
002C
0009
FF9C
FFF5
FFEE
FFFE
FFFE
FFF7
FFF8
FFEE
FFFB
FFFC
FFFF
FFF9
FFF0
FFF0
FFFA
FFF2
FFF4
FFFD
FFF7
FFF4
FFF6
FFEC
FFF3
FFF7
FFF6
FFFC
FFFE
FFF9
FFF2
FFFB
FFFD
FFF9
FFF8
0000
FFF7
FFFE
FFFD
0000
FFFC
FFF4
0000
FFFB
FFF3
FFF9
FFEF
FFFA
FFFB
FFF2
FFFD
FFFA
FFF7
FFF6
FFF1
FFFA
FFFC
FFFB
FFF0
FFFA
FFF3
FFF6
FFF5
FFF5
FFF4
FFF1
FFF1
FFF9
FFF7
FFF4
FFFD
FFFC
FFF1
FFF3
FFF8
FFFC
FFF9
FFFE
FFF6
FFF5
FFFB
FFF2
FFF9
FFF5
FFF7
FFFE
FFFC
FFF4
FFFC
FFF1
FFF5
FFF9
FFFB
FFF4
FFF6
FFFB
FFFC
FFFD
FFF2
FFF0
FFF1
FFFF
FFED
000C
0010
0013
000A
FFE9
FFFD
FFF1
000E
0013
0011
FFF0
FFF0
FFF7
0010
000D
0009
000F
FFF0
0015
FFEE
FFEB
000D
000C
0015
000C
0013
FFEE
FFF1
0012
0008
0010
000F
0011
FFF6
FFF5
FFEB
FFEC
000D
000A
FFEC
FFF8
0002
FFFE
FFF3
FFF6
FFF1
FFF7
FFF5
FFF5
0000
0010
FFF9
FFFB
FFF5
FFF3
FFFB
FFFA
0000
FFF0
FFF0
FFF4
FFEC
FFF5
FFFE
FFFC
FFEE
FFEE
FFF9
FFEA
FFEF
FFFD
FFF3
FFED
FFF7
FFE9
FFEC
FFED
FFF9
FFF9
FFF8
0009
FFFA
FFF4
FFF3
FFF7
FFF6
FFF7
FFFD
FFF9
FFE9
FFF1
FFFA
FFF3
FFFC
FFF4
FFFA
FFAF
FF5F
FF84
0008
0006
001F
0052
FF4E
FF14
FF62
FFC2
0070
009D
0000
FFF8
FF8A
00D2
00DA
00DC
00A6
00DC
FF29
FF2C
0039
0062
007E
FFFE
FFF2
FFC8
FE86
FFFF
0014
0039
FF22
006A
FF9E
FFA0
FE21
FF82
FFB2
0089
0006
FEE4
FFC4
FE90
FF3F
FF85
FF8B
FFB0
FFED
FFF3
000E
000B
FFF5
0013
0009
FFEE
0014
0014
0034
FFFC
000F
002C
000C
000F
000D
FFF1
0008
002C
0018
FFF6
0014
000F
FFEB
FFF4
FF93
0046
FFF6
0014
FFF2
FFF0
004F
001D
0054
FFF5
0015
FFF1
FFF1
002F
0032
001E
FFF0
000C
0010
FFD7
001B
FFF7
FFDF
FFF5
FFFC
FFF1
FFF0
FFE1
FFC3
003B
FFE8
FFFC
FFF6
FFFC
FFED
FFA8
FFD8
FFE9
FFF9
FFFC
FFFA
0001
FFF3
0019
FFEA
0016
000C
0015
0015
0014
FFF6
FFF0
000F
0001
FFEB
FFE5
FFDA
FFC1
FFF4
FFEE
0011
FFF4
FFB2
004F
FFD2
000C
FFF1
FFF4
0018
FFB9
FFCA
FFC1
FFE0
FFBD
FFDC
FFCB
FF8B
FFB1
FFEB
FFEC
FFED
FFD8
FFC3
001D
000D
FFBE
FFE9
FFF8
000C
FFB9
FFBD
FFE1
FFD2
FFED
000D
000A
FFDF
FFD1
FFB2
0029
0029
0004
FFF3
000C
FFEE
FFE1
0038
0058
004E
FF9B
FFEC
FFE4
001A
FFBE
FFC7
003C
0060
FFF0
0001
000E
000D
000D
000E
000A
000D
0013
000B
FFE1
000D
0011
0013
0015
0013
000A
000C
000E
000E
0013
000C
0013
000F
0005
000F
000A
0009
000D
0013
000B
000B
0011
000F
0012
000D
0013
000F
0009
000A
000C
0010
000F
0011
000F
000C
000C
FFF2
FFEE
FFF1
0012
000F
0009
FFA5
FE06
FEC6
FEF4
FF8F
0043
FFDB
00E4
FDDE
FEE2
FE6F
FFFC
0119
0017
FEAF
FEBA
FF2E
FF77
00AC
015E
0114
FF3F
FE89
FFC3
FF0F
00EF
00F2
FEA8
000A
00B5
FFA0
FFEC
FF78
FFC6
0072
FFC3
FFEB
FFB7
FFB3
FF05
0045
0042
FEC4
FED8
FF2A
0005
FFA9
FFC2
FF43
FFFE
FFFF
FFFF
FFFB
FFFA
FFFD
0002
FFFA
FFFD
FFF3
FFF3
FFF3
FFED
FFF4
FFF6
FFF8
FFFC
FFFA
FFF4
FFF2
FFF8
FFFB
FFF6
FFF7
0001
FFF6
0004
FFFD
FFF1
FFF5
FFFB
FFFE
FFFF
0004
0000
FFF1
FFF0
FFF7
FFF4
FFF9
FFFB
FFFA
0001
FFFE
FFF0
FFF3
FFEB
FFF1
FFF7
0069
00A4
0099
002D
00A8
003F
0053
004E
0096
0098
0009
000E
00A6
00AF
001E
004B
0068
0010
FFF3
003B
FFFC
0032
007B
0014
000C
0009
009C
0032
003B
0050
0008
0028
007B
00C5
0068
0023
0029
000A
0017
0060
005B
003A
002C
0077
FFF5
0000
0010
005E
000E
FFE9
FFE7
FFFD
FFFA
0000
FFF9
FF9A
FFF1
FFF6
FFFC
FFFA
FFFF
FFEC
FFD9
FFF1
FFF4
FFFA
FFFB
FFFF
0017
FFF2
FFF4
FFE9
FFF8
FFF2
FFF5
0002
FFC3
FFEA
FFEF
FFEF
FFED
FFF6
FFFD
FFC4
FFF1
FFEE
FFF5
FFF3
FFED
FFFD
FFFB
FFFD
FFF5
FFFC
FFF6
FFFB
FFF8
FFF9
FFFA
000E
FFFF
FFCC
0004
FFCC
000B
000C
0006
FFDC
FFDB
FFD9
FFC4
000A
0003
FFD0
FFD9
FFC8
FFD9
FFD1
FFFB
FFE8
FFCD
FFD6
FFE4
FFDB
0001
FFF8
0007
FFCC
FFD6
FFE1
FFCC
FFCE
FFE5
002C
FFF1
FFE4
FFD2
0001
FFC8
FFF5
FFF8
FFFC
FFD3
FFCD
0008
0013
0006
FFBD
FFBE
FFC5
FFD1
FFF3
FFB7
FFAB
FF9F
FF9E
FFBC
FFFD
FFE7
FFAE
FF93
FF9D
FFB8
FFCA
FFDE
FF95
FFC3
FFE7
FFAB
FF9D
FFCA
FFE8
FFD3
FFF9
FFC9
FFE1
FFDB
FFD8
FF97
FFBE
0011
FFA8
FFB3
000D
FFFE
FFD5
FFD6
FFDA
FFAE
FFC1
FFC1
0004
FFD6
FFBF
FF97
FFB9
FFFA
FFF7
FFF2
FFF9
FFF3
FFE8
FFEB
FFFB
FFF1
FFF9
FFF6
FFF4
FFF5
FFFB
FFFC
FFFD
FFF6
FFFA
0000
FFFA
FFF8
FFF5
FFF9
FFFC
0000
FFF6
FFFA
0001
FFFC
FFF1
FFFB
FFFE
FFFA
FFFF
FFFF
FFF1
FFEB
FFF3
FFF7
FFF3
FFF7
FFFB
FFF4
FFFA
FFF3
FFFB
FFEF
FFE9
FFF2
000C
0014
000B
000F
000C
000B
0015
0011
FFF4
FFED
FFF5
FFF4
FFD6
FFD6
000B
FFEF
0009
0014
000E
0008
000A
0014
0010
000F
0009
000E
000D
0016
0014
0013
000A
0009
000D
000F
000D
000E
FFEE
FFF5
FFF6
FFF2
FFEC
0013
000D
0009
0008
FFF5
FFF4
000D
0009
002E
FFE8
0177
0196
005F
0046
0024
FFD8
FFC7
00CB
009D
FFCE
FF96
FFA3
0000
000A
0107
FFF0
FFF8
0031
00A7
FFF6
FFEF
FFC2
FF18
00C6
FF83
FF1B
FFC1
FFEC
FF17
FFFD
006B
FF49
FF5B
0003
FFD9
FF46
FF15
FF06
FF2C
FFA0
002E
FF10
FF60
005B
008E
FFF9
FFBA
FFF5
FFF8
0000
FFF9
FFFE
FFF5
FFF3
FFF6
FFEC
FFF2
FFF1
FFEB
FFEB
FFF8
FFFD
FFEF
FFEC
FFF8
FFF2
FFF3
FFEF
FFF1
FFF0
FFEE
FFF2
FFF4
FFF5
FFEC
FFFA
FFFC
FFEA
FFF4
FFF2
FFF7
FFF3
FFF5
FFF4
FFEC
FFF0
FFEC
FFEE
FFF5
FFF7
FFF6
FFEA
FFF5
FFEF
FFF4
FFF1
FFEF
FFF4
FFEE
FFEC
FFEE
FFF7
FFF0
0011
000A
0013
0011
FFF2
000E
0011
FFEF
FFEF
FFEE
000B
000A
FFEF
FFEE
FFED
FFEC
000B
000E
FFF4
0014
FFF1
FFEF
FFF4
0014
000D
FFEE
0014
FFF0
000E
0014
000A
000E
0009
0011
FFEC
0014
000F
0012
0014
0010
0009
FFF3
000B
000B
0011
000D
0014
0006
0013
FFF4
FFFF
FFEB
FFE8
FFF8
FFEE
0000
000E
0011
001B
0012
0011
000B
002E
FFF0
FFF2
FFEB
0004
FFFA
FFF7
FFF1
FFF3
0000
0004
0002
FFEF
FFF8
FFFD
FFF1
0008
0000
FFF6
FFEF
FFF7
0007
0008
FFFB
000D
000C
0003
0003
FFFC
FFF7
FFEC
FFF5
FFF2
FFEB
FFFC
FFF4
FFF9
FFFD
FFF9
FFEF
FFF3
FFF8
FFEC
FFFE
FFFC
FFF6
FFF6
FFF8
FFF7
FFED
FFF6
FFF5
FFED
FFED
0001
FFF1
FFEF
0000
FFF8
FFEF
FFFE
FFFA
FFF2
FFED
FFFC
FFEA
FFF5
FFFE
FFEE
FFEE
FFE9
FFFA
0001
0009
FFFF
FFF0
FFF5
FFF9
FF62
FFEA
FFDE
FF90
0024
008A
FF1D
FFBD
0043
FF68
FF25
FFBF
0005
0077
0042
FFC2
FEDE
FF63
FF2E
007F
007E
FF8A
FF78
FF72
00E3
0029
001E
FFA2
FFBD
FF81
FFC1
0058
000C
0051
00E1
FFFA
0034
FFD1
005E
FFD0
0024
FF43
0098
0104
005E
000D
0059
FFA3
FE7C
0026
FFF7
FFE6
0022
000B
0034
0008
0033
0014
0057
FFCF
0020
0010
000E
001F
0003
0044
005D
0023
FFF8
FFED
0001
FFB8
002E
0028
0045
FF92
FFFD
000A
0015
0040
0035
004F
FFDF
0000
0029
FFC3
004D
FFF1
000C
002A
0037
002D
0035
001E
0004
000D
0026
0018
FFF4
FFF2
FFF9
FFEC
FFE7
FFEE
FFF4
000A
0002
FFFC
FFFC
FFFA
FFFD
FFF5
0002
FFF7
FFF9
FFFE
FFFC
FFF9
FFFC
FFE5
FFEA
FFEF
FFED
FFEC
FFEC
FFFB
FFE7
FFF4
FFF4
FFF1
FFEB
FFED
FFED
FFF9
FFFF
FFFA
FFF5
FFEF
FFF2
FFF6
FFFE
0005
FFFA
FFF3
FFF9
FFF9
FFF2
0017
0000
0005
0027
FF66
FE84
005E
0055
0086
FFA1
FF76
FFDF
FFE4
FFFC
005F
0028
FFC7
FF6E
FF76
FFE8
00D5
0065
003F
002D
0049
FEDB
FE3B
0019
006F
00A0
0057
FFF4
FE3F
FE13
000A
00D0
00B0
006A
FEE7
000B
FF51
004E
0059
FF95
001B
FFD8
0002
FF56
FFD9
0000
008A
0056
0060
FFE2
FFF0
0008
FFBE
0012
015F
FFD1
FF71
0035
FF50
0098
00CE
0070
00B0
0038
FFB7
FFE9
0119
00B6
FF90
FF9A
007C
FF78
FEBB
0077
FFEC
FEA3
FFA0
00A6
FFCC
0045
FF4F
FF3C
FF39
FFA6
FF77
FFD4
006C
0073
FF92
FF2E
FF7A
FF6D
FF82
FF42
FFE8
0014
FFCD
FDCC
FE85
006A
001C
0007
FFCB
FFB5
0003
FF51
0043
FFBD
FF1D
0073
FED7
0004
FFB8
0000
FF90
FFB5
FE8E
00C5
FFE4
0016
0088
FF60
FEEA
012D
0011
0148
0019
FFCC
FFDF
FF64
0117
006B
003E
0007
FFEF
FFB1
0036
FFE7
003B
001C
0013
0001
FF7B
0000
FFF7
0002
0004
FFFC
0001
0001
FFFF
FFF7
FFF8
FFF6
FFF1
0003
FFF3
0000
FFFA
0002
0009
000D
0006
FFFA
FFF1
FFF1
FFF6
000D
0015
0009
0006
FFF1
FFFB
0000
FFF2
FFEA
000D
0012
FFF8
0005
000E
FFEB
0001
0002
FFF0
000E
0018
0006
0005
000C
FFEC
FFF2
000C
0003
FFFA
FFFF
FFFD
FFFC
FFFC
000D
000C
0008
0004
FFFE
FFF9
FFF8
000E
0005
0000
000A
FFFB
0005
0007
FFF9
FFEB
0000
FFF7
FFF7
000D
FFFD
FFED
FFF2
FFFA
FFF4
0000
FFFB
FFEB
0019
0008
0002
0004
0002
FFF5
FFF3
0005
0005
0017
0013
FFFC
FFFC
FFF8
FFF8
FFF5
FFEE
FFED
0005
000A
FFF3
FFFB
FFFC
FFFC
FFFB
FFF0
FFEF
FFEF
FFED
FFEB
FFF9
FFF1
0015
FFF4
FFF0
FFF0
FFEA
FFED
0010
FFF5
FFF6
FFF2
FFF0
FFEB
FFEF
FFF9
FFF0
000C
FFEE
FFFD
FFF3
FFEA
FFFB
FFED
FFF2
FFEB
FFFC
FFF8
FFF0
FFF3
FFF7
FFFE
FFF2
FF82
FFD3
FF2D
FF81
0005
FFB8
FF90
FF9E
FFE0
FFA7
FF95
0001
005F
0064
FFA5
FFF5
0026
005C
0005
FF02
FF92
FFEC
FFA1
0025
0070
001D
FFF1
FF4C
00F6
003A
FF94
FFF2
006A
FFF3
0005
0087
001C
FFF0
FF8E
FF3B
0011
003E
000B
FF7D
FF7F
FF5F
FF2B
FEBB
FFCD
FFFA
FFFF
FFF5
FFF4
FFEC
FFE9
FFEB
0000
FFF5
FFEB
FFF2
FFF0
FFE8
FFEF
0003
FFFB
FFF7
0000
0004
FFF4
FFED
0000
FFED
FFF1
FFF8
FFF1
FFF8
FFF5
FFE9
FFE6
FFFC
FFF5
FFEE
FFF2
FFEC
FFEC
FFEE
FFFA
FFF3
FFE8
FFF3
FFEF
FFEE
FFF3
0003
0000
FFFA
FFF9
FFFC
FFFA
FFFF
FFFB
FFF9
FFF1
FFF2
FFEF
FFF9
0005
FFF8
0000
FFF9
FFF4
0000
FFFC
FFFA
FFEE
FFE8
FFF3
FFFA
FFF5
FFFD
FFF4
FFFB
FFF1
FFFF
FFFF
FFF5
FFF8
FFF5
FFF3
FFF7
FFF4
FFF6
FFED
FFF6
FFFA
FFF1
0000
FFFE
FFF7
FFF3
FFF9
FFF0
FFF6
FFF7
FFFA
FFEE
FFFD
FFFE
0012
000A
0009
000A
FFF1
FFF6
0004
0012
0009
000C
0011
000E
FFF6
FFEF
000E
FFF4
FFF6
0009
0016
FFF7
0013
FFF4
FFEF
FFEC
000D
FFAF
FFF4
0012
FFF5
FFEB
0014
0013
FFF1
FFF0
FFF7
FFED
0014
0009
000F
FFFA
FFEE
FFEB
FFFA
000F
000E
0010
FFFA
0023
FFF5
FFEE
FFED
FFED
FFF0
FFF5
FFEE
FFED
FFEE
FFEC
FFE8
0003
FFFE
FFEC
FFF3
0001
FFF1
FFF2
001A
FFE1
FFE8
0001
FFFB
FFFD
0016
0035
0007
FFEB
FFEF
FFF7
FFEE
0019
0008
FFF2
FFEF
FFEB
FFEE
FFF4
0014
0000
FFF1
FFED
FFE9
FFEF
0018
0033
0017
FFEF
FFF3
000E
FFED
FFFD
FFA8
FF98
FF46
FEBB
0066
0052
0067
FFEB
FFB4
005B
0008
008A
002C
FF56
FF2A
FFC7
FFD6
FF83
FFF6
FFBE
FFE6
0068
0041
FF82
0002
0065
006E
0099
0037
FFB5
FFA1
FFCF
FFA3
FF12
0013
0062
0055
003E
FF8F
FF5D
0000
007A
00CB
004E
0000
FEF8
FFED
000F
0009
FFEE
FFED
FFF7
FFF5
0009
000E
000C
0008
000E
0012
0039
FFF1
FFF0
FFEC
FFEF
0015
0004
000F
FFF0
FFF7
000E
0008
FFEF
0044
FFD7
FFEC
FFF5
000E
000C
0006
FFDD
0005
FFEB
000C
000B
001A
0019
0039
0037
FFF0
0012
000F
0023
0057
0052
0039
0057
FFDD
000A
FFE8
FFF8
FFE5
FFE9
0002
FFF3
FFEE
0004
000D
0050
FFEF
000F
FFF4
FFEC
0001
FF9F
FF83
FFB7
FFEA
FFEC
FFE8
FFED
0003
FFA3
FFAD
FFE9
FFEB
0003
0012
0002
FFDF
FF9F
FFF0
FFEE
FFFA
0010
FFBD
FFA3
FFFB
0009
0009
000D
001E
FFE5
FF7D
FFA5
FFD3
FFC2
FFBF
FFAC
FFDB
FF6A
FF8C
004F
0042
0017
0016
FFF3
FFD3
FF71
FFE8
FFEB
FFF0
0005
FFE9
FFDC
FFC0
FFE2
FFEB
FFFC
FFDB
FFED
FFA9
FFB1
FFCA
FFEB
FFC0
FFD6
FFE3
FFBE
0036
FF9A
FFF5
FFCB
FFE4
FFE0
FF93
002C
FFC9
FFC4
FFAD
0014
FFE3
0001
0011
0014
000A
0011
000E
000F
000F
0020
000B
000E
0011
0009
0013
0007
FFEE
0014
000A
0012
000A
0009
000F
0011
FFEC
FFF1
000E
000B
000B
000A
0015
FFF0
0015
000F
FFEF
FFEC
0005
000F
0014
000D
000D
000A
0012
000A
000C
0014
0014
000E
000C
000A
0012
000B
0009
0043
009A
0033
000E
FFF0
FFAF
0063
0064
00E0
0042
0060
0033
FF81
0015
003B
006E
FF86
009E
FFF3
0016
FFED
FFB3
FFC5
007F
FF5C
006C
FFD6
0057
0044
0025
FFB3
FF93
FFD4
002B
FF6B
006D
0069
00AC
FFD8
FF35
FFB5
0092
009E
00A5
0049
FFF2
FFFC
0021
0003
FFFF
FFFA
FFFB
FFEC
FFF3
0006
0005
0002
0003
0002
FFFD
0005
FFE8
0004
FFF7
0000
FFF8
0004
0008
FFFC
FFF1
FFF7
FFE9
FFEA
FFFA
FFEE
FFFC
FFFC
FFF3
FFF2
0000
FFF8
FFF1
FFF6
FFF7
FFFB
0000
FFFD
0000
FFEB
FFF7
000C
0006
0006
0005
0002
FFF6
0003
0073
001F
FFDA
FFDC
FFFC
000A
FFF5
FFFC
0015
FFE1
006E
FFE5
002E
004C
0070
005D
FF7E
004D
000C
0039
FFB1
0003
FFFE
FFE5
FFDB
0003
0062
FFAD
0033
FFCF
0055
000A
FFA1
0002
0049
FFC6
FF78
0053
FFCF
0040
0028
005A
FFE8
0019
0074
0083
FFB9
004E
FFBB
000A
FFDB
FFEB
FFF2
FFEF
000F
0058
FFE6
FFD8
FFFD
0002
001C
004E
0056
FFED
FFF7
FFF4
FFEF
FFFA
000C
001B
FFFB
FFF6
FFF2
FFF2
0009
0021
000B
FFE2
FFF6
FFEA
FFF3
0030
003E
FFB7
FFFC
FFEB
FFF6
FFFA
001D
0036
FFD7
FFF5
FFF4
FFF3
FFF7
FFF2
FFF9
FFFC
FFEF
000A
FFCA
FFD9
FFAC
FFCE
FFFA
0011
FFCB
FFDB
001C
0009
FFDA
FFDD
FFCF
FFCD
FFC8
FFD4
FFD0
0024
FFD2
FFD4
FFD1
FFE0
FFD1
FFCA
FFFE
FFEB
FFEE
FFAC
002B
FFE6
FFE2
FFCD
FFC8
FFEB
FFCF
FFD3
FFCC
FFD1
FFDA
0008
0000
0006
FFC4
000C
FFD7
0006
000A
FFCE
FFC1
FFD2
FFD8
FF99
FF80
FF7D
FFD9
FFCB
FFC9
FF96
FFA9
FFB6
FFC1
FFCD
002B
0026
000A
0000
FF9A
FFAB
FFBE
FFF4
FFE7
FFD2
FFFE
FFA2
FFAF
FF90
FFBF
FFF4
0020
0028
FFEB
0013
FF8C
FFB8
FFE5
FFF3
FFCE
FFC5
FFA5
FFC8
FFB6
FFBE
FFFF
FFF9
000A
FFB8
0005
0008
0006
FFFC
0001
FFF4
FFF5
0000
0001
0000
FFF7
0003
FFFF
FFFE
FFF5
FFED
FFE9
FFFD
FFFC
FFF8
FFF4
FFF4
FFEE
FFF6
FFFA
FFF9
FFEE
FFEC
FFF0
FFF2
FFFB
FFF0
FFF7
FFE9
FFF4
FFFA
FFF4
FFFB
0003
FFF9
FFEF
FFFB
FFFD
FFFD
FFFD
000A
FFEC
FFFA
FFF9
000C
0014
0012
FFF7
FFED
FFEB
0009
0012
0009
0010
0013
0015
000F
0009
0011
000E
FFF4
FFF5
000A
0025
0041
000D
FFEF
0009
FFEC
FFF9
0015
FFC1
000F
0009
000E
FFF1
000B
FFF1
FFF0
0012
0014
000E
0001
0009
000B
0014
000A
FFF7
FFF2
0011
0051
000A
000C
002E
FFB0
FF49
FD8A
FFB3
FFE6
FF2A
00ED
0032
FF6A
FFA0
0072
0022
0084
FEDC
0092
0116
0033
001C
00FA
FF94
0073
FF2C
FFC2
FF69
0037
00E2
008A
00A7
0021
006B
FF9B
FF35
0039
0110
00DF
002B
FF78
0000
0087
005B
FFCF
0042
007C
FF63
FFD6
0029
00C7
00CC
FFF4
FFEB
FFE9
FFEC
FFF5
FFF3
FFFB
FFFE
FFF6
FFFC
FFFC
FFF3
FFF4
FFF3
FFF9
FFF0
FFF5
FFEE
FFF0
FFED
FFED
FFFB
FFE8
FFF8
FFF9
FFF0
FFF1
FFF5
FFE8
FFEA
FFF2
FFF4
FFE9
FFF2
FFF4
FFEE
FFF7
FFFD
FFF7
FFED
FFFA
FFF5
FFE9
FFFA
FFFD
FFEF
FFF4
FFEF
FFF0
FFF0
000D
0011
0015
FFEB
000C
0011
0012
0010
000B
0015
000C
FFF0
FFF3
FFF6
000F
0013
FFED
FFF4
FFF3
FFEC
FFF7
0013
0011
0012
FFEB
FFF7
0010
000A
000B
000D
FFF3
FFEC
000A
000E
000F
0011
000D
FFF3
0013
FFF3
000A
FFF7
0014
FFF2
FFF0
FFF5
FFF0
FFF5
FFF3
FFFC
000F
0013
000E
0010
FFFB
0011
0013
0009
000F
0016
0011
0001
0008
FFEA
FFFC
FFFE
FFF9
0017
000C
FFFB
FFFD
0011
000F
FFE9
FFEF
FFE8
0013
0017
FFE8
FFED
FFF3
FFE7
0016
0017
FFF6
FFFD
0001
000A
0003
001E
FFEC
FFEC
FFF3
FFF3
FFFF
FFF2
002B
0000
0010
0005
0006
0003
FFFE
000E
0003
000E
FFFE
000A
0011
000F
000D
0004
0011
0008
000B
000F
0006
000C
FFFB
FFFE
0000
000A
FFF9
FFFC
FFF9
0000
FFF5
0004
0011
000C
FFFD
FFE6
FFF4
FFFF
0015
0002
000D
000B
FFF9
FFF5
FFFE
FFF9
0008
000B
000D
000B
FFFE
FE6C
005B
005C
FFB0
FFA1
FFCA
FFFC
FFA9
FFCF
FF74
FFA9
FFB8
FF6D
0023
0048
002A
FFD0
FFE5
FF80
FFBE
FF6A
000E
FFCB
FF9A
FEC1
FF99
FFD8
0028
0012
FFCF
FF2E
FFB2
FF92
0047
0076
0035
0080
FFCE
FFF2
FFC2
FFC9
FF61
FEC6
FE66
FF13
FFE7
007F
0020
FFDE
FF91
FFAD
FF82
FF84
FFCB
FFC0
FFA1
FFA0
FFBB
FFDF
0052
0046
0009
FF81
FFAF
0004
FFA1
FFF3
0002
FFF5
FFC3
FFE4
002D
FF86
0062
FF84
FFEA
FFD3
0018
FFF3
FF89
FFB0
FFA8
FFA2
FFBA
FF80
FFE5
0008
0018
FF82
FFC4
FFD6
FF96
FF7B
002C
FFF6
FF81
FFC6
FFFA
000A
0009
0014
000F
0016
0008
FFFA
0009
0009
0005
0008
0008
0005
FFF5
0007
000E
0010
000A
0008
000B
FFEF
0000
0008
000B
FFF8
FFF2
FFEE
FFFC
0010
0005
0006
0001
FFFF
FFEC
0008
000D
000D
0013
0012
0012
000A
FFE8
FFF6
FFEB
0007
0009
0011
000A
FFFE
FFA4
FFBB
FFA9
FEF2
0020
FF84
0069
FF9D
FFB4
FFC2
FFE1
0044
FF90
0074
FFED
FF99
FFAD
FEC7
FF9E
FFBF
0006
FFEB
FFB3
FF33
FFD8
00ED
0073
FFCD
001A
FFBC
FF1D
00C6
00D6
00A9
FF34
004F
FFF2
FF4F
FF73
FED9
0037
FFF1
006B
FF75
FF79
0058
FFD4
FF67
00B9
FFBC
FFD2
FF8D
FFF6
0035
0048
FFF8
FF36
FF6C
001C
FFD1
FFCB
0009
FF2A
FF10
FEE3
003F
FFCA
FFFC
FFCE
FF0D
FF88
0016
00A0
0009
0001
004A
FF36
FFBE
0075
006B
0049
0018
00C4
FF8E
FFCF
FFED
001A
FFDA
FF52
FFD8
FFA4
FFF1
0068
0056
008C
FFC0
0033
0025
FF81
000D
FEBF
00F9
0112
0076
FFE5
007C
FEFC
FF68
FF9E
001B
0017
FFEE
FF30
FF49
FF7A
FFCF
0026
00D0
0049
FF6A
FF97
0001
FFF6
0044
0090
007A
FF4F
FFEA
FFF0
FFF9
006C
0021
FFA2
FFCB
FFBE
0002
0004
FFFD
FFDE
0038
FFE7
0056
007E
0004
0039
0010
FFF7
0008
000E
000E
000F
000E
0002
0012
0011
0016
000E
000A
0007
000A
000D
001B
0013
000A
0009
0009
0010
FFFD
0010
0013
000D
FFFE
0006
0015
FFF9
001C
0014
0000
000E
FFF5
FFF3
0008
0013
0004
0011
000C
0002
FFEB
000C
000F
0008
000B
0008
0009
000F
000D
001A
0013
000E
0009
0014
0016
0017
0013
0013
0012
0014
000E
0011
0007
0016
0017
0010
000A
0019
0016
0015
0011
0017
001B
0010
FFFC
0015
000C
0013
0007
0014
0013
0002
FFE5
000B
0013
0018
0013
000D
0015
000C
0012
0015
0001
000D
000D
0015
0013
000E
000E
FFC6
FFF5
FFF5
FFF0
FFF9
0015
FFCD
FF9C
FFF2
FFF1
FFFB
FFEB
FFFB
FFF8
0005
FFF0
FFEF
FFEC
0010
FFF0
FFE2
FFF5
FFF1
FFED
FFF5
0018
0019
0010
000F
FFF5
FFF1
FFED
FFF1
FFEC
000E
0011
FFEF
000F
FFF0
FFF1
FFF6
000C
000A
0006
FFF1
0000
FFF2
00B6
FFF3
0059
002A
FFFE
0008
FFB4
0050
00A7
FFEF
FFB7
FF76
FFF8
FFD5
FFD6
0006
FFE6
FFFF
0079
0000
FF9C
00BE
00DB
00BD
FFC1
FFC4
FF9E
0065
000F
00DC
0060
FF7D
FFE5
009F
00D8
FF18
0074
FFAA
FFCD
FFD3
FFEA
FFC3
FF35
003A
FFF5
000E
0017
002F
FFE8
FFFF
FFFB
0006
0007
0003
0004
0002
0001
0006
000A
000F
0007
000E
0009
FFF5
FFFC
0009
0009
0005
0003
0010
FFFC
0007
0009
000A
0005
0004
FFFD
FFEE
000C
000F
0004
0006
FFFC
FFED
FFF3
0005
000A
0010
0001
FFFF
FFF7
0003
0019
0017
0013
000B
0001
FFFF
FFFF
0007
000B
000E
0019
0014
0007
0001
000E
000B
0014
0011
0011
0010
0007
FFFC
0005
0013
0015
0010
0015
FFFC
0000
0001
000E
0008
0000
0005
FFFA
000F
0015
0009
000D
0009
0004
FFF2
0003
0012
000E
0011
0013
FFE7
FFFC
0005
0004
0003
0017
0018
0000
FFFB
FFEC
FFF1
FFF2
0010
0013
000B
FFFB
FFEE
000A
0010
0011
000A
000C
FFF3
FFEB
000A
000E
FFEF
000D
000A
FFEF
FFF1
FFF3
0014
0010
000A
FFEB
FFED
000C
000F
0009
000D
FFEF
FFD3
FFF3
0015
000A
0010
000F
0006
FFF6
0012
000D
FFE8
FFF3
0010
FFED
FFE9
FFF0
000E
FFF9
FFFC
0007
0011
0006
000D
0006
0006
FFF8
FFFF
0009
0008
0005
FFF7
FFFC
0013
000D
FFEE
000D
0008
FFE6
0005
001A
FFEA
FFE8
000C
FFE5
FFE9
0020
001C
FFEE
FFC1
FFF0
0001
FFF6
0024
000B
000D
FFFC
FFF4
0016
0009
0018
FFF7
0009
0000
FFFE
FF99
FFFF
0030
000F
004C
FFEE
FFA8
0009
FF87
0040
FFEC
0005
FF9E
0008
000D
003E
FF9C
0022
FFEF
FF8B
0015
004C
FFE5
FF95
001B
FFC6
00AC
00DE
FEE6
FF3E
0001
FF97
FFF2
007C
006F
0008
FFE2
FF53
FEBE
FF5C
FFA5
FF73
FFE0
007A
FF5D
FF7F
FFC9
0046
FFD4
FFEF
0014
0009
0010
000A
0011
0008
FFF5
FFF7
FFF0
FFFB
FFDF
0001
FFCB
FFF6
0010
000A
FFEC
000B
FF9C
FF9E
FFF0
0012
000B
FFF0
FFD3
FFCD
FF8F
FFF0
0013
0013
FFEE
FF88
FFB0
FFE1
000B
0013
FFF0
FFDA
FFF6
FF95
FF97
0010
0012
FFE5
FFAD
FFDF
FFA4
FFAD
0004
000B
004C
FFF9
FFF6
FFF0
FFCC
0003
000E
0011
0012
0002
FFE6
FFF4
FFF0
0015
FFFD
0000
FFED
001D
0032
FFF1
000D
0012
0003
FFE6
0059
FFB7
0000
FFFF
0002
0011
FFD8
FFF5
FF6B
000B
000C
0000
000E
FFCB
FFAE
001C
0012
0011
0008
0034
0039
0049
0049
001C
006A
007D
0098
007A
003E
0035
0000
FFEF
0032
0028
0015
001C
FF99
FFD6
FFE7
000F
FFED
000D
FFC3
FFC4
001D
FFD5
0012
0007
0006
FFC8
FF94
0010
FFCD
0009
FFFE
FFF0
FFFA
FF97
0007
FF3A
FFF0
FFF2
0013
0037
FFE8
0095
FFBC
FF7F
FF7B
FFD3
0002
000C
0017
000C
0009
0014
000D
0026
0008
0013
000B
0009
000D
000B
0009
0010
000C
0009
0013
0010
000C
0010
001B
000B
0012
000D
0009
000B
0009
000A
0009
000C
0011
000C
0013
FFD9
FFF9
0013
000E
0013
0011
000A
000D
FFEC
000A
0013
000D
000B
000C
0014
0009
FFE3
001E
FFB0
0020
001B
0011
0033
FF7B
0069
004F
0066
FFBF
FFFC
0088
FF8B
FFDE
FF94
001C
FEEC
000F
FEED
0022
FF84
FEC3
FEB9
FFEC
0060
FFD3
0002
FE63
FE48
FF05
FFE7
FFC4
FFA1
FFA3
FFB1
FFE7
FF21
001D
0019
0038
FE39
FFB6
0053
00D0
001B
008C
FFD5
000C
000D
0014
0010
001B
0010
000D
000E
0011
0019
0011
0018
0013
0010
0006
000B
000F
0012
0014
0011
0018
0006
0018
0010
0014
0010
001B
FFFC
0011
0018
0019
001A
000D
FFF4
FFE8
000F
0019
001A
0011
0014
000B
0010
0017
000F
000F
0016
0012
0012
0013
FF74
FFA3
FF9A
FFFE
FF67
FF56
FFAB
FF98
FF9F
FF75
FFFF
FF48
FF90
001D
FFCD
0003
FFB2
0010
FFBB
002C
0043
0053
0037
FFFE
000E
FF8E
FF89
FFEB
001A
FFE8
0009
0012
FF71
0008
FFD8
FF6A
0040
0054
000E
0009
FFBD
FF32
FF5B
FFB1
0005
FFC7
FF67
FFCE
FF97
FFEA
003B
0017
FFE5
0000
0073
FFE3
001C
000F
0005
FFEC
FFB2
FFD2
FF41
001A
0019
FFFF
000B
0010
0040
FFB7
000E
FFFC
0004
0010
0008
002C
FFD1
0008
FFEC
0005
000A
0004
005D
0009
FFF8
0006
0003
0014
0013
0025
0047
FFFC
0006
000B
0010
0010
000A
FFFF
FFCF
FFF6
FF97
FFA5
FFCA
FFCA
FFCC
FFCF
FFCD
FFAA
FFC2
FFC3
FFC1
FFCA
0038
FFBB
FFA1
FFAD
FFC8
FFD7
FFB8
FFDC
FFD7
FFB0
FFBB
FFC9
FFC3
FFC1
FFD6
FFD0
FFC9
FF98
FFBA
FF98
FFCA
FFCD
FFDA
FFCB
FFBB
FFC9
FFC5
FFDF
FFC9
FFDA
FFC8
FFCD
FFC3
FFCA
FFF8
FFA5
FFA0
FFA4
FFA1
FF94
FFC9
0028
FFB1
FFBC
FFCC
FF86
0037
0043
0044
FFA5
FFE4
FFE7
0029
0036
FF8B
FF93
001F
0027
FFC5
0014
FFE6
FFC9
FF5B
FFBE
FFB5
001B
0023
0021
FFAF
FF9F
FFC9
FF9D
FF9F
FFA0
0009
FFC8
FFB1
0053
004A
0015
FFD4
FFD8
001E
FFC8
FFFB
0000
0007
0002
0006
000D
000B
FFFD
0001
000D
0008
000B
000A
000E
FFF8
FFF7
000C
0011
0008
0003
FFFE
FFEE
0005
000F
000A
0007
FFF9
FFF8
0008
0005
0008
000D
000A
FFF9
FFF7
0010
FFF9
000F
0014
0005
0003
0001
FFF0
0003
0008
FFF9
0016
0005
0007
000A
000E
0035
0010
0014
0009
000F
000E
000D
0013
000E
000B
FFF2
0004
FFF0
000E
FFF3
000B
000D
0004
0008
0013
FFF0
FFF4
0011
0013
FF99
FFEB
0009
000D
000B
FFEC
0028
000D
FFF1
0013
FFEB
FFF6
0009
0014
0001
FFE1
0015
FFED
FFEB
FFB9
FFF2
000A
0010
006E
0005
FF8F
007E
0025
0022
0014
FEF5
FFCF
FEA1
FFC2
001E
FFE6
003E
FFC3
FFF2
FF05
FFFC
FF8B
FF80
000C
0012
FFC3
FFAF
FF6C
FF8E
FF84
FF4C
FF55
FFBF
FF3C
0072
FFC0
FF6B
FEA4
FFF7
FFC3
FFF6
FF91
FF21
FF6E
FFB1
FF89
FEEC
FF2E
FE7A
FE7B
FFFC
FFBD
FFF7
FFFB
000B
0011
FFF7
FFF3
FFF2
0000
0001
0006
FFFC
000E
0009
0007
FFE2
000A
000B
000A
000E
0009
0011
FFF0
0003
000A
0001
0005
FFF9
000C
0000
000A
0007
FFF7
0002
0000
0009
0021
0029
000C
0007
000B
0008
FFF8
0002
0009
0005
0002
FFF4
FFE9
FFFE
FFEC
FFF1
FFED
FFF5
FFEF
FFF6
FFEE
FFF4
FFEF
000B
0015
FFF7
FFEF
000E
000E
000A
0009
FFF6
FFF4
0013
FFF3
FFEF
000D
0012
FFF2
FFF6
000D
FFF7
FFEC
FFF8
FFED
FFEB
FFF6
000F
FFF2
FFED
FFF7
FFF1
0009
000F
0009
0009
FFEE
FFF5
000C
0010
0013
FFF6
FFF0
000B
0009
FFEE
FFEB
000C
FFFA
000B
0009
FFF1
FFF9
FFFA
0005
FFF3
0006
000A
0017
0004
0005
000E
000B
FFF0
000B
FFF4
0000
FFF3
000A
0008
0030
0006
FFFF
0017
000A
000A
0000
0009
000B
0000
FFEC
FFFB
000B
FFF6
FFDE
0008
000F
0011
0010
0012
0009
0004
0009
0008
000B
000F
0012
0005
000B
0011
0007
0007
0006
0006
000D
000D
0011
0009
0010
0008
0012
0013
0007
000D
0017
0013
0006
0013
000D
000F
000C
000F
0009
0009
0010
0006
0010
0010
000A
0007
0010
000F
000C
000E
000A
0012
0019
000E
0013
0013
0012
FF6D
FE9B
FE29
FFF6
002E
FF36
FEB7
FED9
FF87
FEF8
FF23
000C
0019
FF89
006D
0037
FFFA
FF91
FFDA
FFED
006B
007A
0087
FF6A
FF83
0028
FFA2
004A
001F
FF90
FF6F
004D
FFFA
FFBC
FF45
FF01
FF78
004D
007E
008C
001E
FFDC
00F8
0078
00C0
00BB
FFEF
FFCD
00B3
0026
002D
000A
FFEA
0000
FFF6
FFFA
0025
004F
0021
005E
FFF3
FFDF
001E
0048
0071
FFB8
0068
0075
0019
0038
0089
0061
003E
0058
0074
FFDF
FFFC
0055
0039
005D
007D
0077
0060
0018
0020
005E
0058
00A0
00A3
0047
0039
0018
000F
FFF8
0081
00DA
0010
002E
000F
0009
0009
0007
0007
0009
0006
000E
0009
0008
000A
0009
0011
000D
000F
0009
000E
0012
000E
0010
0008
0012
0010
0010
0012
000B
0005
0010
0003
0006
000C
0007
0006
0010
000F
0005
000F
000E
0007
0011
0014
000D
0012
000F
0014
000B
0012
0016
000A
001C
0043
0034
FFDE
FFBE
0002
FFC7
00A4
0006
0003
000E
0048
FFD6
FFDE
FF77
0004
FFE6
004F
005A
FF72
FF60
FF94
FFEC
FFE4
FFCB
001B
FF8B
FF6B
FF65
FF6B
000F
0065
FF75
FF4D
FF3F
FFAC
FEED
0017
00CC
FFE8
001F
0067
FFDC
0039
FF42
0014
FF9A
FFB1
005E
0009
FE54
FEFC
FEED
FF7A
FFC1
FF46
FF56
FF19
FE79
FD86
0070
0040
0063
FF8E
FF58
FF68
FFB8
FF52
FFF4
FFC0
FE87
FFB5
00EB
00B8
0007
0023
FFC4
FFEA
00B5
00C2
0042
FFA4
FF3F
FF5A
0005
0085
005B
FFF2
FEEB
FFED
FFF4
00BC
0031
FF97
FFBB
FFEC
0033
001C
001C
FF89
FDFC
FF03
FECF
FF72
0053
FF68
FFC9
FED5
FF91
0012
FF1A
006A
FFCD
0027
0004
FEFB
0046
0045
0049
FFE8
FFD0
FE6E
002E
000C
0002
FF6E
FEC7
FE29
FFBB
FEC3
FFB3
FFD0
FFE4
FFA4
FF03
000D
FFDD
0008
FFFD
FFDE
FF48
FFBC
000F
002D
FFE3
FFC4
FFC4
0008
000F
0007
000D
0008
000E
0009
0006
0008
000F
000F
0000
0001
0001
000D
000C
0007
0001
0000
FFF6
FFF4
0009
000E
0010
000B
FFEF
FFFF
0000
0005
0008
0010
0004
FFF9
0004
FFFE
0003
0001
0003
0002
FFFC
0006
0000
0007
000D
0005
000C
FFFC
0003
FFF2
0004
0003
000C
0000
0008
0000
0006
FFFF
0010
0007
0011
0008
0006
000D
000E
000B
000D
0011
000B
0005
0005
0001
000F
000D
0009
0007
0008
0005
FFFC
0004
0004
0008
000D
000E
0004
FFF1
000B
000C
0008
000D
0009
0002
FFFC
000A
0002
0011
0012
000B
0007
000F
0008
0011
000C
0006
0011
0014
0009
0011
000D
000E
000B
0015
000D
0017
0005
000B
0005
0004
0007
000A
0010
0010
000C
000F
000F
000A
0006
000A
000E
000A
000B
0010
000E
000C
0011
000C
000D
0006
000E
000E
000E
0008
0006
0014
0016
000C
0012
0010
FEA1
0025
FFCD
0003
FFB5
FFB4
FFB9
00A4
004B
0050
0063
FF14
FF93
FFF1
FFFD
0004
FFF0
0040
0028
FFC6
0069
FF38
FED3
0067
FFEC
FFF1
FF72
FFEC
FF84
0000
0061
0042
FFD8
FF8F
FF59
017C
FFD3
002E
0023
FFA7
FF59
FF69
00D7
FFDB
001E
FFC0
FF9A
FF6E
FFA3
0008
0009
0011
000E
000D
0006
0006
000B
000A
000B
000A
0016
0006
0006
000E
000C
000B
0012
000F
0006
000E
000F
0009
000C
0016
000F
0007
0009
000B
0013
000D
000C
0011
0008
0010
0008
000E
0006
000B
0008
000E
0007
0010
000D
0009
000E
0010
0006
0007
000A
0005
000A
000D
0012
0008
000E
0006
0005
0007
000D
0014
000B
000B
000C
000F
000F
0005
0005
000F
0004
000A
0008
000F
0004
000D
000A
0009
000F
0007
000E
000A
0009
0007
0003
000C
000E
000F
0011
0011
0008
000A
0010
0009
0007
0010
000F
000D
0010
0002
FFF1
FFF3
FFF4
FFF4
FFF3
FFF7
FFFE
FFF6
FFF4
FFF7
000C
FFF0
FFF2
FFEC
000A
000C
FFF0
FFF2
FFF3
FFEF
FFF5
FFF7
FFF0
FFEC
000F
FFED
FFF5
0012
FFEC
FFF1
FFF2
FFF7
FFF1
FFFE
FFF3
FFF6
FFF4
FFEB
FFEB
FFEF
FFF3
000E
0008
0013
001A
0012
000C
FFF9
0009
000E
000B
0008
0007
000F
0005
000F
0011
000F
000B
000E
000F
0005
0010
000D
000B
0009
0012
000C
0006
000A
0012
0006
000D
000A
0008
0005
0012
000A
0003
0011
0002
000F
000F
0008
0007
0008
000F
000C
0005
000A
0009
0007
0004
0006
0005
0008
0009
FFB0
0026
0030
0051
000A
FF9F
FFD6
FF4F
001B
0017
0044
FFFF
FFC2
FF73
FFAA
FFA7
FFEC
006B
FFC8
FFDC
FEB6
FF99
0064
FFEE
FFC2
FFA2
FFD8
FEF9
FFB6
0097
FFC5
FF06
FF87
FFF9
0042
005D
0019
FF87
0005
00C5
0011
00C1
FFB5
FF9E
0063
005E
001C
0007
FF91
FFF0
FFF0
FFF6
FFEC
FFF6
FFF3
FFFD
FFF4
FFEB
FFEF
000A
0009
0014
0000
0009
0009
FFF5
0013
FFAB
FFD1
000A
FFF5
FFF6
FFF5
000E
FFF0
FF73
FFB6
FFF5
FFF5
FFEC
000E
FFE5
FFF1
0008
FFEC
FFF2
000A
000B
FF96
0085
006F
FFF3
FFF1
0026
FFB7
FFFD
FFCD
0037
FFF0
FFFB
FFE1
001D
002F
005C
0090
FFF2
000B
0011
0014
FFFE
0000
FFD1
000A
000F
0006
FFFB
0057
006C
002E
FFF1
0014
FFED
FFF3
FFFE
0007
FFDD
FFF6
000D
0014
FFFF
0008
FFF4
FF92
FFF5
FFEE
FFF5
FFEC
0011
FFB0
FFA4
FFEB
FFF5
FFF0
FFFF
0030
FF7F
FFC4
FFD8
FFC3
FFB3
FFD8
FF86
FFC5
FFEC
0000
FFFC
0015
FFFF
0017
FFF7
0021
0004
0008
0009
000C
FFE0
FFBE
002A
FFD2
001F
FFE8
FFE1
FFF4
002A
001B
FFE5
FFC1
000F
FFFE
FFEE
003F
FFD3
FFB1
001A
004D
0017
0064
0038
FFAF
FFB1
FFCC
000B
0037
FFED
001B
FFEE
FFEF
FFF6
FFF4
000A
FFF5
FFF7
FFEB
FFF1
FFF0
FFF5
FFF5
FFF7
FFF0
0000
FFF6
FFEF
FFF5
FFF5
FFF4
FFF0
FFF3
FFF7
FFF4
FFF6
FFF7
FFED
FFFF
FFED
FFF3
FFEB
FFF6
FFEC
FFF6
FFF9
FFF4
FFEF
FFF6
FFF7
FFF1
FFF6
FFEC
FFF0
FFF6
FFF2
FFED
FFF1
FFF6
FFF7
FFEE
FFD3
FFE2
FF9A
005F
0070
0030
FFAD
FEFA
FF68
FF0B
0070
000C
FFC3
FF29
FFF4
FF9A
FFBF
0031
FFFF
FEF8
FEEA
FFAC
FFA9
FFDC
0000
FEFC
FEBC
0045
FF45
FF3E
0076
0090
FF69
FFC2
FED8
FFF2
FF36
000F
0057
FFE9
FFE9
FEFB
009A
0064
000A
FFEE
000A
FFA5
0074
0009
0006
000E
0006
0008
FFFE
0009
000B
000D
000D
0004
000B
0011
FFFB
000E
0006
000D
0011
0009
0009
FFFF
0010
000E
000A
000F
000F
000C
0004
000B
000E
0003
0009
0010
000C
0006
0006
000F
000F
000E
0005
0005
0008
000A
0005
0005
0015
000D
000B
0011
FFE9
FFB3
FFE5
FFC7
0007
003D
0018
000B
FFED
0003
FF5B
0066
FFE3
FF9E
FF5B
FFB2
FFA5
FF81
003F
FFD9
FFF8
FFC5
FFCA
FFB0
003A
FF96
FFB3
0043
FFAF
FFE1
FFCC
0008
FF83
FF6E
FFAA
000A
FFE8
FF77
FFAC
FF58
FFA7
FFB5
0030
0025
FFA0
FFF4
0099
000A
0023
0016
0000
0000
0000
0004
0013
001D
0001
0002
0007
FFFE
FFF1
0008
0022
0007
0010
000C
000E
000E
0011
0022
000F
000A
0008
0006
000F
FFF4
002B
0015
0010
0010
0011
0012
001B
0047
0010
000B
000F
0016
000B
0008
0036
000B
0007
0007
0010
0009
000C
000D
0033
FFF6
0026
004C
0039
0035
0013
FFF9
0035
0047
000F
0028
003A
0032
003E
0037
0043
00AE
004C
002C
003E
0049
003F
003A
0030
004A
0010
0032
FFFC
0022
001D
004B
0045
002B
0032
0037
000B
002C
002C
0035
0028
0016
003B
003C
004D
FFF6
0030
0034
FFFB
0051
FFFF
0008
0022
004A
0059
00A5
0051
0045
FFE7
0037
003E
008D
004E
0040
002F
0003
FFF5
FFD9
0014
003E
0005
000B
005A
003C
000A
FFE2
0044
0030
FFEF
0033
005C
0019
0021
0057
FFE1
FFC9
0017
000B
0013
0024
003A
0051
004D
004B
002E
005C
0002
0046
000B
000B
0008
0012
0018
0008
0009
0012
0008
0010
000B
0009
0006
0008
000D
0010
000A
000A
0019
0009
000C
0004
000B
0011
000D
000C
000F
0009
0007
000A
000B
0006
0013
000C
000C
0010
000A
000E
000F
000D
0009
000D
0007
000A
0005
0012
000E
0008
0007
FFF5
FFED
FFEC
FFED
FFEE
FFEF
FFF1
FFEB
FFF1
FFEB
FFEB
0009
0015
FFEF
FFF4
0012
000C
FFEE
FFF0
FFE0
FFE8
FFF5
FFF0
FFF5
FFF1
003F
0043
0005
FFF2
FFEF
FFF2
FFEC
FFE7
FFF1
FFF1
0009
000B
FFF7
FFF5
000E
000F
FFF4
FFF3
FFF0
FFF6
0009
FFD5
002B
FFFD
003A
00B9
FE6E
FF43
000A
0000
FF84
FF5C
FFC8
FE7D
FF48
FFEE
003B
FF9B
FF53
FFD6
FF24
FF18
FFE6
FEF5
FF64
FFF9
FFA7
FF33
FFB8
0022
FF2D
FF79
0004
0077
0051
FF4D
004B
001C
FFC2
FFF1
0003
0073
00B3
0062
0049
00A3
FF3D
001C
0102
009F
0076
003F
0165
000A
000A
000A
000E
000D
000C
000C
0007
0008
000F
000C
0008
0005
0013
000D
0007
0006
000E
000D
000F
0010
0016
0017
000D
0014
0009
000E
0008
0013
0008
0011
000A
0008
0013
0009
0006
000E
0013
000E
000F
000C
0012
000B
000B
0013
0012
000B
000C
000B
