FFE2
0056
005F
0072
001F
FF70
0077
004F
FF9C
FEB3
FF8F
FFBF
FF30
FF00
FF8A
FEC4
FE3B
FEFD
FFF3
004B
FF4A
FFE7
0048
005F
0073
FFBF
FF9F
FFF7
FFB8
FFF8
FFAA
FF30
FFFD
FFF3
FF96
0004
FFF5
0053
000F
FF34
FFC4
FFF3
FFC1
001E
FF9C
FFCA
FFB0
FF76
0009
FFD9
FF94
009D
003E
001E
FF5A
FFD3
0066
0022
001B
FEAF
0042
004B
001E
FFE2
FF98
0028
FFF6
FF80
FECF
FF85
FFF0
FFFF
FFCE
FFE8
0037
004E
0034
FFB6
FFCD
0000
FFA7
0030
0029
0029
FE81
FFD4
0040
002E
0017
FF8B
FFDA
FFDA
0045
006A
FFC6
FFA9
FFAF
FFDE
008C
0074
0041
FFD0
FF98
003F
006F
000C
FF9E
FFAD
FF7A
FFA8
0052
00A8
00BB
FF0C
FE9B
FF63
FF9E
006C
001F
FF65
FF1E
FE49
FF99
0011
FFEB
00F6
0002
FF06
0024
0042
0030
FF38
FF05
FFF4
005F
0067
FFD1
FFF9
008E
0078
004D
0065
0056
000F
FF76
FFFB
0046
FFC7
FFDD
0047
FFD5
0030
0001
0026
0040
001A
FFD2
FFA3
0038
FFF4
FF82
FF68
FFD5
0029
002D
FF8D
FFD1
FFFC
002A
0041
FF90
FFDE
001C
FFE1
0048
FFAF
0011
0090
0019
FF09
FF51
FFC0
0080
FEBE
FEB4
FF1A
001E
FE59
FF09
0025
FEC7
FEBC
FFC0
004A
008B
FFEF
FEE2
FF3E
003A
0034
000D
FF98
FED6
FF3D
FF6F
FFBE
FF99
FF97
0073
0065
00A1
00F4
007E
FFCD
FFB2
FFC9
0072
FFCF
FF9E
FFC8
FF94
FF49
FF0E
FF9D
0067
00DE
005C
FF7A
FF60
FFC0
FF40
FFCC
FFCF
FFCD
FFA3
FF85
FF4E
FFA4
FFDF
FF6F
000D
FF52
FF52
FF8F
FFAE
006E
FFAF
FF58
FED4
FEF1
0010
FFEF
001A
FFA3
FFA9
FF30
FFC5
FFB7
000E
002F
FF93
FF19
FF90
FF58
FECF
0038
FFEC
FF88
0056
FEE9
0091
00B9
FFED
000F
001F
FF33
0044
003B
007B
FF2C
FF16
0044
000F
0071
FF1A
FF34
0024
FFFD
FFA1
FF16
FF55
FFF6
0095
0028
FF55
FF6A
0017
002B
FFC3
FF8E
FF10
FF1E
FF12
FFA6
FFFF
FF94
FFC1
FFC7
FFDC
002C
FFBC
FF9D
FFDB
0067
FFA7
FF98
FFCF
FFFA
0030
FF0A
FF5D
0053
FFCE
0008
FF22
FFFE
FF26
0016
0045
0118
FF5C
FEC7
FE07
FEA3
007E
FF95
0043
0007
FF2B
FF3C
FF7D
0083
004A
FFBE
FFAA
FF7A
FFF9
004A
0042
0013
0067
FF66
FF20
FF76
FF9B
0011
FFA6
0001
FF3A
FFC6
FF9F
FFA1
0005
FFCB
000B
FFE5
FFF9
FFAF
FF7B
0046
0059
FFFE
002C
003F
00B5
FFEA
0008
0026
003B
0049
009C
002A
FFF6
001D
0034
FF7F
FFE7
0041
0015
001D
FF11
FF48
FF98
FF79
FFA3
0005
FF96
FF5A
FF89
FEB4
