FFFC
FFF1
FFE5
FFED
FFF6
FFE9
FFED
FFED
FFF7
0005
FFF1
FFF2
FFE7
FFF6
FFEE
FFFD
FFEB
FFFB
FFFC
FFEE
FFF2
FFEE
FFEB
FFEF
FFE7
FFEE
FFF3
FFF2
FFEE
FFEB
FFF7
FFF5
FFEA
FFFA
FFE8
FFF9
FFE5
FFEE
FFE9
FFEC
FFE7
FFE7
FFEC
FFEB
FFEF
FFFB
FFF8
FFEE
FFF1
FFFA
FFE8
FFF9
FFE8
FFF3
FFFC
FFFD
0017
0006
FFF5
FFF5
FFED
0010
FFEE
FFF8
FFF2
0009
FFE8
FFF4
FFF7
FFFA
FFF7
0003
000A
FFEF
FFF8
FFE7
FFE7
FFEA
FFF5
FFE7
FFF1
FFEA
FFE8
FFE5
FFF2
FFF0
FFB2
FFF4
FFE6
FFFB
FFEA
0005
FFF1
FFFD
FFF9
FFEE
0005
FFEA
FFFC
FFFA
FFFE
FFF1
FFF1
FFF5
FFF8
FFF0
FFEC
FFF7
FFE7
FFF3
FFEC
FFE8
FFEE
FFFD
FFF9
FFEB
FFF5
FFEE
FFF5
FFF4
FFEE
FFED
FFE6
FFFB
FFF7
FFE5
FFE8
FFEC
FFFB
FFF3
FFE6
FFEF
FFFD
FFF1
FFFA
FFE8
FFE6
FFF2
FFEF
000C
0000
0005
FFF7
FFEE
FFF6
000C
0001
FFE8
FFF5
FFE8
FFF6
FFE4
FFF9
FFEE
FFFD
FFFA
FFF4
FFF7
FFF0
FFE6
FFE7
FFFA
FFF2
FFE6
0012
FFF9
FFE3
FFF2
FFF6
FFEC
000F
0000
FFF0
FFF1
FFF8
FFF3
FFF2
FFF8
FFEC
FFFD
FFFA
FFFB
FFF9
FFF1
0019
FFEE
FFE8
FFEC
FFEE
FFF6
FFF6
FFF8
FFF7
FFE9
FFEA
FFEF
FFFA
FFF6
FFE9
FFE9
FFEF
FFFB
FFEC
FFE7
FFF4
FFE6
FFE6
FFE9
FFF1
FFFB
FFFB
FFE8
FFFA
FFF7
FFF5
FFF9
FFED
FFFE
FFE7
FFFE
FFEF
FFEF
FFE8
FFF2
FFF8
FFFB
FFE8
FFF8
FFE7
FFED
FFE5
FFF1
FFE8
FFF4
FFEB
FFF8
FFFA
FFFC
FFF7
FFF9
FFFC
FFF1
FFF9
FFE8
FFE6
FFF9
FFEA
FFF1
FFFE
FFE9
FFFB
FFF9
FFF0
FFEA
FFF5
FFEE
FFEB
FFF5
FFFB
FFE7
FFEB
FFFA
FFE8
FFF2
FFE5
0009
FFEB
FFEE
FFF0
FFF2
FFEF
0001
0011
FFE1
FFF6
FFF2
FFAC
FFA7
FFF0
FFF4
FFF7
FFCD
FFC6
FFF7
0010
FFF9
FFB3
FFD0
FFED
FFF3
0006
FFBB
FFCA
FFEA
FFFA
FFFA
FFBE
FFC5
0015
FFEE
FFEE
FFFE
FFEE
FFED
FFEA
FFEF
FFEC
FFF6
FFEC
FFF0
FFEB
FFF4
FFE9
FFFA
FFE6
FFF8
FFFB
FFFD
FFE6
FFF2
FFF9
FFE6
FFE7
FFF3
FFEB
FFEA
FFEA
FFFC
FFE6
FFF8
FFF5
FFE5
FFE8
FFFC
FFF5
FFF8
FFE5
FFEF
FFEF
FFF9
FFE2
FFEC
FFFB
FFFC
FFF9
FFFC
FFF1
FFE8
FFFE
FFE6
FFFA
FFEE
FFEF
FFEF
FFE7
FFEC
FFED
FFF3
FFE8
0009
FFEB
FFE6
FFEC
FFF5
FFFA
FFDF
FFED
FFF4
FFEC
FFFA
FFE7
FFF7
FFED
FFF3
FFF0
FFFB
FFF7
FFF7
FFEF
FFF9
FFEF
FFF4
FFF3
FFE7
FFFB
FFFB
FFEB
FFEE
FFED
FFE5
FFEA
FFFD
FFF6
FFF8
FFEB
FFFD
FFE7
FFF2
FFFC
FFFA
FFF0
FFFC
FFFA
FFEC
FFED
FFEF
FFE3
FFEA
FFED
FFEC
FFEB
FFEF
FFF7
FFF5
FFEC
FFFB
FFFE
FFF6
FFE2
FFEC
FFFE
0001
FFF2
FFF8
FFE5
FFF2
FFED
FFF1
FFF7
FFF7
FFF8
FFFB
FFF3
FFFB
FFF7
FFEF
FFF6
FFF4
FFF8
FFEF
FFF2
FFF6
FFEB
FFE4
FFE4
FFE2
FFE2
FFFA
FFEC
FFF0
FFCB
FFE8
FFFF
0002
FFF8
FFEE
0007
FFFB
0000
0003
FFC7
FFEE
FFF0
FFF2
FFDF
FFF6
FFF5
0000
FFF4
FFF8
FFFA
0000
FFFE
FFEA
0000
FFF1
FFEA
FFF0
FFF2
FFE0
FFF4
0000
FFE3
FFEB
FFF8
FFF0
0000
FFE2
FFF6
FFF7
FFDF
FFE3
FFF3
FFE9
FFE3
FFF4
FFF3
FFE3
FFE8
FFF6
FFF1
FFE5
FFEC
FFF2
FFF0
FFEB
FFEB
FFF4
FFEC
FFF2
FFED
FFF6
FFF6
FFF7
FFEC
FFEF
FFE5
FFEB
FFF1
FFF2
FFE3
FFEF
FFF6
FFEB
FFF2
FFF6
FFED
FFE7
FFED
FFF2
FFFF
0001
FFEF
FFFD
0007
FFFB
FFF1
FFE7
FFE3
FFFD
FFE6
FFED
FFED
FFF2
FFDE
FFF4
FFF2
FFF7
FFEF
FFF4
FFF9
FFF7
FFEB
FFE9
FFF8
FFF8
FFF7
FFE6
FFEA
FFF2
FFEE
0001
FFE6
FFF3
FFFE
0001
0000
FFE6
FFEB
FFF4
FFF1
FFE2
FFEF
FFEA
FFFB
FFF4
FFED
FFE5
FFEF
FFFF
FFEA
FFE6
FFE9
FFEE
0002
FFEA
FFF6
FFE9
FFF0
FFEE
FFF4
FFEF
FFEB
FFF1
FFFA
FFF3
FFF0
FFEC
FFFA
FFEE
FFF7
FFE8
FFF6
FFF8
FFF7
FFF1
FFF9
0000
FFF0
FFEE
FFF2
FFF1
FFEC
FFEF
FFF0
FFE5
FFED
FFEA
FFE4
FFF4
FFF6
FFED
FFF4
FFF3
FFED
FFEA
FFEC
FFEB
FFEC
FFEA
FFEA
FFF8
FFF7
FFE7
FFE3
FFF5
FFFA
FFF3
FFFA
FFF3
FFEE
0000
FFEF
FFF9
FFFB
FFFA
FFE8
FFF5
FFF2
FFF2
FFEC
0001
FFF6
FFF5
FFF7
FFF0
FFEA
FFEF
FFE6
FFEB
FFFC
0000
FFEE
FFF9
0007
FFF6
FFEA
FFF2
FFF6
FFF4
FFF7
FFE6
FFFC
FFF9
FFFC
FFE8
FFFB
0008
0015
0000
FFE8
FFE9
FFF3
FFFE
FFF8
0001
FFF0
FFEB
FFEB
FFFC
0000
FFF9
FFF3
0000
FFEE
FFF1
FFEF
FFFC
0000
0008
FFF5
FFF5
FFED
FFE8
FFEF
FFFF
FFFE
FFF2
FFF4
FFEA
FFEE
FFFE
0000
FFFB
0001
FFE3
FFEB
FFE3
FFEC
FFEB
FFF9
FFEE
FFF5
FFE8
FFF4
FFF2
FFF2
0000
0000
FFF2
FFED
FFFA
FFFB
FFF6
0002
FFF0
FFEE
FFFF
FFF0
FFF7
FFE8
FFF2
FFF4
FFE3
FFF9
FFF1
FFE8
FFF9
FFF5
FFEE
FFEA
FFF3
FFFA
FFF3
FFF8
FFF6
FFEA
FFEC
FFFA
FFFF
FFE8
FFF4
FFE4
FFFF
FFFC
FFF6
FFEE
FFF4
FFF5
FFEA
FFE3
FFE7
FFF2
FFE4
FFF4
FFF3
FFE1
FFF3
FFF4
FFED
FFE7
FFF7
FFE8
FFFA
FFFC
FFF7
FFF8
FFEB
FFFC
FFEF
FFEC
0000
FFEE
FFFA
FFF0
FFFA
FFF3
FFEE
FFFC
FFEA
FFFA
FFEC
FFED
FFF3
FFF1
FFFA
FFF2
FFFD
FFF0
FFEE
FFF9
FFF0
FFE4
FFF5
FFFB
0000
0000
FFE9
FFF9
FFF7
FFE5
FFF1
FFE5
FFE7
FFF2
FFFC
FFFF
FFFE
FFFE
FFFA
FFE8
FFF7
FFFA
FFF2
FFEA
FFFD
FFF5
FFF0
FFF2
FFFE
FFE9
FFFE
0002
FFF4
FFF8
FFE9
FFEC
FFF4
FFE7
FFE8
FFE8
FFE9
FFFA
0002
FFF1
FFE6
FFEF
0001
FFFB
0003
FFED
FFFC
FFFB
FFFB
FFF8
FFEF
FFEF
FFF7
FFF1
FFF3
FFF4
0003
0001
FFEC
FFE0
0007
0007
0001
FFE7
FFE0
FFF2
FFF1
FFFF
FFF0
FFFB
FFF8
FFE8
FFEF
0003
FFF3
FFFD
FFF0
FFF3
FFE4
FFEF
FFF1
FFEE
FFE7
FFEC
FFEE
0000
FFF9
FFFD
FFEB
FFF8
FFFD
FFF5
FFF3
FFEE
FFF6
FFFC
FFEF
FFFE
FFF2
FFF0
FFFE
FFF5
0000
FFF6
FFF8
FFF2
FFE9
FFEB
FFEA
FFE9
FFF7
0001
0000
FFFF
FFF3
FFF9
FFEF
FFF7
FFFB
0002
FFF5
FFFA
FFE2
FFE5
FFFC
FFEE
FFF7
FFF4
FFEC
FFF7
FFFB
FFFA
FFE7
FFF8
FFF9
FFF8
FFFD
FFFF
FFF9
FFE4
FFED
0002
0001
FFF3
FFF5
FFEF
0000
FFF5
FFFA
FFF3
FFFE
FFFB
FFE5
FFEE
FFFE
FFEF
0000
FFED
FFEE
FFF1
FFFC
FFEB
FFFD
FFF1
FFF1
FFF4
FFF8
FFF6
FFF7
FFEF
FFF7
FFE2
FFEA
FFF0
FFFA
FFF6
FFE7
FFED
FFEB
FFF3
FFE7
FFF4
FFE9
FFFB
FFFB
FFED
FFF7
0000
FFFA
FFE8
FFFE
FFF6
FFFD
FFEA
FFF6
FFFE
FFF0
FFF7
FFFF
FFF2
FFF5
FFF4
0000
FFEE
FFF6
FFFA
FFF9
FFF9
FFF8
FFF7
FFE8
FFEF
FFEE
FFFC
FFFE
FFEA
FFF5
FFF7
FFFE
FFEA
FFF8
FFFB
FFEF
FFEB
FFF4
FFF6
FFF1
0004
FFF5
FFEC
FFFD
FFFD
FFFF
FFF3
FFFA
FFEF
FFFD
FFEE
FFFE
FFEB
FFF0
FFF5
FFF7
FFF6
FFEB
FFED
FFF5
FFE9
FFF6
FFF3
FFEA
0001
FFF9
FFEA
FFFC
FFFC
FFF1
FFF2
FFEF
FFE7
0004
FFF0
0003
FFEC
FFEB
FFF1
FFF8
FFFE
0000
FFE2
FFE9
FFFA
FFF9
FFF1
FFF4
FFF5
FFFE
FFFA
FFEF
FFFF
FFFC
FFEF
FFF6
FFF5
FFF3
FFE9
FFEE
FFFE
FFFA
FFFB
FFE9
0000
FFFA
FFFC
FFF1
FFED
FFFB
FFED
FFFD
FFFD
FFFD
0000
FFEF
FFF7
0000
FFEA
FFE9
FFFB
FFF8
FFFD
FFF7
FFF1
FFF0
FFF4
FFF6
FFE7
FFF6
FFF6
FFF6
0000
FFF5
FFE2
FFF9
FFFA
FFFB
FFFB
FFF2
FFEF
FFF3
FFED
FFED
0000
FFF5
FFF3
FFF2
FFF6
FFF3
0000
FFE7
FFF0
FFEE
FFF1
FFF2
FFFA
FFF1
FFE6
FFE4
FFE9
FFE8
FFF3
FFE8
FFEA
FFF2
FFFF
FFF5
FFFE
FFEE
FFF5
FFE6
FFF7
FFFE
FFE1
FFF1
FFFB
FFFB
FFFC
FFE7
FFF5
FFF1
FFF4
FFF1
FFEF
FFF1
FFE8
FFF7
FFEB
FFFA
FFF6
FFFD
FFFA
FFE6
FFEE
FFFE
FFF1
FFE8
FF7B
FF5C
0008
FFE8
FFF5
FF21
FFB3
FFCC
FFBC
0001
008E
0000
FEF3
FF6E
FE98
FFBC
00B4
FFBF
FDC6
FF1D
0025
000D
FF0D
FECC
FF7B
002B
FFE3
FFE6
FFC5
FFC9
FFD1
FFC6
0016
FFFD
0022
FFC1
FFC2
FF9D
FFDF
0009
FFF3
FF3E
0000
FFBF
0014
FFC8
FF8E
FFC6
FF8E
0043
FFB4
FFFA
0031
FF7D
FFAD
0023
FFF5
FFC1
FF9E
0090
000B
001B
0096
FF94
0076
FFDC
0058
002B
FF65
FFE1
0000
0013
FF2B
FFF3
FFC3
FF55
0041
FF8B
FFFE
FFF4
0025
0014
FF34
FFE4
0011
FFC8
0033
FF15
002C
007F
FF6B
0017
FFAD
FFFF
0097
FFF1
0042
FF6D
FF8F
0015
0043
FF77
0057
0003
FF4F
006D
FF82
FF7B
FFBD
002D
FF9C
FF9B
FF8A
FF77
00CB
FFCC
FF27
005A
000A
FFBA
FF17
FF5D
FFAB
FFA5
FF96
FFA7
FF6F
FF32
FFA3
FFD1
FF45
FF7B
FFB1
FF91
001A
FFAD
FF85
FFCB
001C
FFE7
FF99
002D
0051
FFED
FF8D
FFAD
0047
00BF
FFEC
FF9C
008D
FF67
0057
0052
0065
FFF0
FF40
001D
0016
FFE1
FFE3
FEBA
FFF1
006C
002E
FF7C
FF19
FFD4
006A
003E
FF30
FF8B
FFD8
006F
003D
FF88
FFC8
FF8D
002E
0100
FF15
FEC9
FF3A
003C
002B
007F
FF78
FFA4
0029
FFBB
FF91
FFA0
FF9B
FED7
FE64
0057
002B
0005
0096
FDE2
FFB7
FEC0
FF27
FEAC
0015
FF62
FF62
FEAB
FF59
FF8C
FF00
0011
FFAF
FFFB
FF96
FF7C
FF51
FFCF
FF42
FFF0
002C
005B
FFF6
FF92
FFDC
FFB8
FF99
FFEA
FFD4
FF8D
FF57
FFEC
002F
FEF3
0029
0025
FFD8
FEF6
000D
FF48
0051
FF34
005A
FF9A
FF52
0035
FF0E
0056
FFF1
0002
FF5A
FFEB
FF72
FF77
FFE8
0125
00D3
FFBD
FF30
00BA
0024
FFED
0002
FF77
FF92
FF3F
0025
0006
FE83
FF02
FF1C
0022
000A
FFA1
FEE3
FFA0
000D
FF28
00C0
007C
0065
FFA4
FFDB
0072
FFFD
0027
FFA9
FFFC
008B
0063
FFC2
FFA7
FF65
0029
0034
FF49
FFC1
FFE8
FF99
FFBD
00BA
FFB7
FFD3
FF91
0008
FFF0
FF75
FFD0
FFCF
0093
FF6C
FF6F
FFF1
FFC4
006C
FF99
0013
FF8E
FFD9
FFDE
FF6A
0013
000C
FFE1
FFF5
FFBC
0067
FFF9
FFA2
FF9B
0087
00A9
FF77
FF9B
0000
00AB
FFA9
00D9
FFD9
FF94
0021
FFA6
0083
FFF5
FECA
FF6A
FF81
0007
FFA9
0028
0048
FF73
FF97
FFD8
0086
0069
FF3C
FF1C
00A9
FFC7
FFE4
FF83
FF74
005F
FF94
FF7A
0066
0045
FFC9
FFAA
002B
0033
0059
0039
FF38
FF9C
006D
000F
FFAA
FE4D
FF7D
FFD8
FFCD
FDDE
FF55
0082
FF8B
FFBC
0001
FE61
FFB5
FF53
FF70
0040
FF90
FFCE
002E
FFE6
FFCB
0093
0028
FF45
FFA6
FFA0
FFD1
003A
0020
FFA2
FFDE
FFB9
FFAE
FFF2
0002
FFA6
FF6A
FFBC
FF6C
FF99
FF60
FF6A
FFD1
FFB4
FFDB
FF83
FF6F
FFF8
FFEF
FFEA
FFE8
FFF3
FFF4
FFEC
FFEF
FFEF
FFFC
FFE8
FFEF
FFE6
FFEE
FFEE
FFF0
FFF5
FFF0
FFE6
FFF1
FFFC
FFEE
FFFD
FFEA
FFED
FF4F
FF93
FFC2
000D
0036
FF41
FFC7
FFF0
FFF7
000B
FF3F
FFDB
FF8A
FF94
FF6D
FF59
FF4A
FFBE
FF7E
FF44
FFA4
FFD3
FF7D
FF53
FFEC
FF42
FF83
FF99
FFD1
FF8A
FEFB
FF80
FF66
0058
0029
FF2C
FFD2
FFAD
FFDE
0000
FF4B
FF72
FF93
FF75
FF63
FF8F
FF93
FFC3
FF5B
FF48
FFF8
FF95
FF96
FF8F
0032
FFEB
FFB6
FF77
FFFE
0046
FF80
FF9B
FFE3
FFB9
0035
FF74
FF8F
FFF4
FFA3
FFD5
FFA9
FF74
FFBF
FF74
001C
FF99
FFEA
FFE2
001B
FF8B
FFDC
FFD9
FFC2
FF5A
FF88
FFAB
FF8B
FF74
FFE3
FF92
FF7F
FF8F
FFCB
FFBE
FF23
FF63
FFA5
FFAA
FFC4
FF60
FFBC
FF94
002B
FFB6
FF7E
FFBC
FFB6
FFBA
FF76
FF8D
FF99
FF55
FFC1
FF86
FFA1
FF5C
FF5F
FF9F
FF8F
FFB6
FF4A
FF55
FFA7
FF84
FFA8
005C
FFFC
FF98
FF6E
FFB1
FF78
FF94
FFBA
FFA7
FF7B
FF84
FFDB
FF7C
FF61
FF99
FF60
FFBD
FF8E
FF7C
FF77
FFB0
FFF4
FFBE
FF8A
FFC5
FFBE
FF73
FF80
FFCF
001A
FFCA
FFC5
FF88
FFE3
0012
FF77
FFB9
FF7A
FF7A
FFB3
FFB2
FF44
FF5D
FFEF
FFDC
FFA3
FFDF
FFB5
FFB7
FFDA
FFE3
FF9B
FF70
FFA1
0002
FFB8
0033
FFDA
000C
FF98
FF6C
FF6F
FF86
FFD2
FFE8
FF92
FF93
FF91
FFA6
FFD0
FFCB
FEFD
FF6E
FFE8
FF91
FF60
FF75
FFC4
FF6E
0042
0008
0054
FF40
FFA6
002A
FF7F
FFAC
FF97
FFC4
FFB7
FFD9
FF8B
FFC6
FFC9
FFC1
FFDA
FFB6
0028
0011
FFB4
FFAC
FFF4
0013
0021
0047
0013
0003
0020
FFFF
0010
0056
FFC8
000A
FF83
FFE0
FFDD
FF44
FFD6
FFDC
0021
FFED
001E
0083
0022
0043
FFF6
002E
FFBF
FFDB
FFFD
FFE0
0007
FFEE
FFB3
FF7F
FFDF
FFF1
0007
FFC9
0025
FFDB
FFE4
FFA9
FF6D
FFEB
FFD2
0021
FF62
FFB3
FF84
FF95
0000
FF8C
FFA9
FFE7
011D
FF7F
FF4C
FFCF
FFD3
0014
FFBA
FFEF
FF83
FF9B
0047
FF8F
FF92
004D
FFB9
FFC4
FFD4
FFA7
FFBC
FF7D
FFF5
FF8D
FFCE
FF68
FF58
FF89
FEF5
FF72
FFB4
FF7F
FF92
FFAD
FF96
FF70
FF7B
FF72
FF73
FF3C
FF5E
FF82
FFB9
FFC5
FFCD
FF96
FF60
FF7F
FF95
FF79
FFAA
FFC5
FFD7
FFFE
FFF0
FFA8
FF71
FF77
FFC0
FFC6
FFE4
FF99
FF98
FF4D
FF3B
FF9B
FFC7
FF2D
FF4E
FF69
FFC4
FF68
FFEF
0000
FFFD
FFEF
0000
FFFD
FFEF
FFF1
FFFF
0001
FFFD
FFF8
FFF7
FFF9
FFF8
FFFC
FFEA
FFEC
FFF9
FFF7
0001
FFFC
FFF3
FFF9
FFE5
FFFD
FFFA
FFEA
FFE9
FFEF
FFF0
FFFB
FFED
FFF9
FFF4
FFF2
FFEC
FFFC
FFF9
FFF5
FFF4
0001
FFEC
FFF3
FFFA
FFEE
FFF7
FFF6
FFF9
FFF4
FFC7
FFF7
FFE0
FFEC
FFE0
FFDB
0004
FFF3
FFE7
FFE9
000F
FFF2
FFED
FFFF
FFFC
FFF3
FFF3
FFFD
FFEC
FFEE
FFF6
FFEF
FFEB
FFF0
FFEB
FFE6
FFE7
FFEB
FFEA
FFF8
FFFF
FFFB
FFFF
0003
000A
0007
FFFF
FFF9
FFFE
FFFF
0001
FFFE
FFFC
FFFC
FFFF
FFFB
FFEA
FFE7
FFEB
FFED
FFEB
FFEE
FFF4
FFEF
FFEA
FFF0
FFEA
FFFD
FFF1
FFEE
0002
FFFA
FFFE
0000
FFF6
FFFD
0003
FFF1
FFFE
0007
FFF9
FFF7
FFF1
FFFD
FFFF
FFFD
FFF9
FFE2
FFF1
FFEF
FFEF
FFFC
FFFD
FFEB
0004
FFFE
FFFA
FFF7
000E
0011
0004
FFFA
0000
0005
000C
FFF4
FFEF
FFF1
FFEB
FFF2
FFEB
FFFC
FFF3
FFE4
0000
FFF8
FFF9
FFEF
FFF9
0000
FFF1
FFE3
FFE8
FFF3
0000
FFFC
FFFC
0000
0006
0002
FFF9
FFF3
FFEF
FFF8
0000
FFFB
FFEB
FFFE
0001
FFFB
FFEE
FFEA
FFF0
FFEE
FFFF
FFF2
FFF9
FFF6
FFF4
FFF5
FFEF
0000
FFFE
FFFC
FFF1
FFFB
FFEF
FFF0
FFF9
FFE1
FFF2
FFF1
FFEF
FFE7
FFFC
FFFE
FFFB
FFED
FFE9
FFFC
FFFD
FFED
0001
FFFD
FFF3
FFF8
FFEE
FFF2
0005
0003
FFF7
0000
0004
FFFF
FFEE
FFFE
FFF0
FFE8
0000
FFF5
0001
FFE8
FFFE
FFFC
FFF5
FFF1
FFF0
FFF8
FFEA
FFFA
FFF0
FFF5
FFF3
FFFF
FFFE
FFF6
0000
FFFF
0005
FFFA
FFFE
0000
FFF5
FFE9
FFF3
FFFB
FFE7
FFF9
FFEA
0006
FFE9
FFFF
FFDF
FFF0
FFF9
FFED
FFE6
FFE8
FFE8
FFF1
FFF0
FFF3
FFF8
FFEA
FFEC
FFE8
FFFD
FFF6
FFF7
FFF6
FFFF
FFFC
FFF7
FFE8
FFF6
FFF2
FFF5
FFF4
0000
FFFA
FFF4
FFFA
FFE3
FFF9
FFE8
FFF4
FFEE
FFE9
FFF1
FFEE
FFED
FFFF
FFEE
FFE9
FFF0
FFFB
FFF4
FFF6
0000
FFF7
FFF2
FFFE
FFF3
FFEE
FFFA
FFFC
0000
0002
0002
0002
FFEF
FFF2
0000
FFF9
FFFA
FFF8
FFFC
FFE7
FFF4
FFFD
FFEA
FFED
FFFE
FFFE
FFFA
FFEE
FFEC
FFF8
0000
FFEE
FFFE
FFFA
FFF9
FFEB
FFE3
FFF7
FFF4
FFED
FFE0
FFF0
FFEE
FFFA
FFF7
FFEA
FFFD
FFEE
FFE8
FFF3
0002
0000
0000
0001
FFF4
0003
FFF0
FFEB
FFF1
FFF2
FFF9
FFE9
FFEB
FFF3
FFE9
FFFE
FFE5
FFF1
FFF0
FFFD
0000
FFEF
FFEE
FFFA
FFF9
FFE7
FFF3
FFE9
FFED
FFF8
FFF2
FFF1
FFF4
FFF0
FFF3
FFF4
FFF5
0000
FFF5
FFF4
0000
FFF5
FFBC
FF8B
FF1A
FE71
FE94
FEC8
FFBC
FFD2
FFF1
FECF
FEA1
FFA1
FFC3
FF17
FF0F
FED6
FF40
FF91
FF74
FF54
FE66
FEFC
000B
FF67
FF6F
FFC2
FFC9
FFB0
FFE4
FFCF
FF87
FFBD
FFD3
FFE6
FFE4
0110
0041
FFED
FFDA
FFCA
002D
FFD6
FFC8
FF9E
FF99
FFC1
FF86
FF8A
FFAB
FFBC
0052
006F
0090
004A
0009
0055
0082
0007
FF6B
FF83
FEF4
FF3D
FF01
FF7C
FF76
FFA5
FFCA
FF3A
FF4A
FF2B
00C2
005E
FF0E
FF82
0014
FF82
FF7C
FFA3
0023
FFAD
FFE7
FEE3
FFAA
FF8B
FFE9
0070
FEE7
FF8C
FFD9
0035
007E
001A
FFD7
FFB2
FFA5
FF9C
FF9E
FFA3
0008
FF1F
FFBD
FE19
FF3A
FFB1
003B
FEF8
FF2B
0051
FFC4
0071
00E6
FFEB
0055
FFF8
0012
005D
FF72
FF27
FF9A
FF67
FEDB
FF7E
FFCC
FFFB
FF9D
005D
FF84
FEFF
FEF3
FFCA
0092
0009
FF63
FFA6
0060
0026
FFD4
FF71
FFF5
FF9C
FF5B
FF7B
FFD1
FFDD
FFA3
0049
FF82
006C
FF3F
FFE3
FF7F
FFFC
FFC7
FEA6
FF2A
FF38
FF20
FF1D
FE5D
FE9D
FF3E
FF8A
FFE6
FF5E
FFAD
006A
FFBA
FF9F
FFAB
FFF6
0014
0023
FFCB
FF6A
FF20
FEE5
FE82
FFB8
001D
FF66
FEFC
FFFD
FF7D
004C
FFAD
FFE0
FFBF
FF54
0041
005C
FF13
FFB7
FF22
0013
FF9C
FE8A
FE75
FEFD
FFB1
FF81
FF7B
FF1A
0086
FFC8
FF5A
FE98
FF64
FFA5
FFAF
FFE8
FFC3
FFA7
FF3D
FFED
0004
FFAA
FF05
FF43
FFBD
FF7E
001F
FF39
FF0B
FFA7
0004
0067
FECD
FF4E
FFF0
FEEF
008A
009C
008F
008F
FFFD
FF25
00BA
015E
FF57
FF6D
FE2E
FE9E
FF78
FF6F
FFEE
FF0B
FF33
0013
FF9C
FF36
FE80
FF47
FF6A
FF6A
FF67
00FC
005C
003B
FF40
FFE0
0067
0017
001E
FE93
FF66
FF25
FF88
FF2F
FF11
FFE7
FF5A
FFA5
0066
FFDD
FFE6
FFE7
0023
FFD5
0078
0000
FFCA
FF1A
FFD2
00AC
FFF7
FED7
FEB0
FFCC
003C
FFFA
0015
007C
FFE3
004E
FF80
0086
0015
FEAE
FF88
FF5C
FF89
FFB0
FFB1
FFD8
FFEF
0002
FFC0
FFBE
FFC1
FFE7
FFFA
FFD7
FFC4
FFA2
FFCC
FF72
FFA5
FFAB
FFA5
FFFA
0086
FF73
FF8B
0059
FFD7
FF56
FEE7
FF3A
FFA7
FF8B
FFEE
FF5D
005A
FF41
0036
FFB5
FFC1
FF11
FF34
0054
FF24
FF6C
001E
FFEB
FF4D
FECF
FFF0
FF70
FFED
FF28
FE96
0009
FF47
00CA
FEFD
0013
FFFA
0089
FF76
FF63
FF6E
FFD9
FFCD
FF49
FF4F
FF13
FF39
0071
FF77
FF8D
0005
FFCD
FFFB
FF4F
FF00
FF1D
FF83
0096
0062
FF6F
FF05
FFDD
00A2
FF20
FF51
FE5D
FF43
0053
FF46
FFC8
FF10
FEB9
FFB1
0024
FF5D
FE0E
FFC8
FFE4
FF47
FF5D
FF53
FE63
FE79
FFDB
0042
FF82
FFA9
FFC9
004B
0086
FFEB
004F
002B
0056
00A2
003D
FFEB
FF9F
0051
0073
0065
FFC7
FF03
FFB1
0016
0010
0007
0029
002D
FFF8
FFEC
0005
0001
FFE5
006C
FFE8
FFE4
FFEB
0000
0032
FFEB
FFDC
FFE7
FFD4
FFE4
0001
FFC1
FFE1
FFEB
FF9F
FF8F
FF98
0014
FFC2
000C
0043
FFEA
FEBC
FEE2
00B6
0000
FF46
FE69
FFBB
FFC5
FFFB
FECB
FF96
FFF8
0032
FFDF
005B
004E
FF99
0063
001A
001F
0058
002A
0068
FFB2
0015
005E
FF1E
FF89
FFCB
FEEC
FEEF
0031
FFA2
000E
FFED
FFFE
FFFD
FFE6
0096
FFB5
FF8E
FFE0
002B
006A
0065
FFEE
00DB
FFF0
FF64
FF9D
FFBD
FF3E
FF4E
FF0D
FFB9
FF86
0074
009C
FFA4
FF8F
001B
FFCC
FFE9
002A
FF9E
000A
FFDA
FFC8
0002
002E
0033
00A2
0094
FFFA
FFEE
FFD7
00D6
008E
FF8D
FF81
FF48
FF82
FEE4
FFC6
FF9D
FFDB
FF3E
FFAA
0043
FFF2
FFDB
001A
FFC8
003F
0074
0021
FF8E
FFCE
FF85
005D
0021
002E
FF9F
FF8C
001D
0019
0034
0027
FF9F
FFCF
FF85
003D
001E
0038
FFE9
003A
0003
FFC3
FF0F
FEB9
0019
002D
0018
0040
FE27
FEED
000D
FEAE
0054
FE8A
FFCE
FFE0
FFCE
0066
0048
00CA
FFF9
000C
0135
FF93
006C
0039
0010
0050
FFB2
0000
009C
FFD0
FF9C
FFDC
004E
0039
006D
FF3D
FF35
FF94
0066
0035
FFC7
FF95
FFCC
FFAA
FFFC
FF27
FF76
FFB8
0026
FFE9
FFFE
FFE7
FFA2
FF8F
FF4C
00CF
FF92
FF6D
FF8B
0106
0030
0042
FF94
FF9E
0014
FF15
FF84
0011
FF94
0029
FF53
FFD8
FF8A
0017
007E
FFAC
FF95
FF5C
00AF
FF7B
0022
FFC3
FFB1
FFA2
FE5E
009E
0084
FF4E
FF72
FF6F
FF9D
0042
002B
FFEC
FF6F
FF36
0119
005D
FF5E
0062
008E
0072
007D
00C5
0047
FF24
FFC3
FF96
FE12
FEA3
FF1F
FF27
FEEA
000E
FFA3
FF45
0051
0016
001F
0091
0036
0136
00C0
0086
002D
0008
0076
0080
FFC8
0041
0059
FF95
FFB3
0056
0080
0033
000C
FF53
003E
FFE9
FFDC
FFF4
0046
005B
FFF5
0068
0073
0058
FFFA
FF58
0046
FF0B
FF07
0020
FFF8
00BB
00CF
0037
FEBE
FE66
003F
0016
000E
0064
FFBC
FFE2
FFE0
FFF6
FFDA
FFAA
008F
0077
FED6
FFD7
00A8
FFE0
0083
FFB2
0083
0091
FFE7
FF7F
FF60
002C
003D
FF91
FF57
FEE9
FEA6
FF13
FFB4
FFC4
FFCF
FFD1
0048
0040
FF31
FFCA
FFA6
0067
0092
FF8E
FFFF
0037
002E
0098
003D
000A
FFCA
0086
FF6F
FFF2
0025
004A
0054
FEA1
FEE3
FFAD
009E
FF8A
FF91
FF3E
FF56
005C
004B
FFF3
0004
0000
FF76
FD9F
FF59
FF76
FF45
FFFB
FEF7
FF90
FF57
FF98
FFA6
FEC9
FF2F
FF99
FFFA
FEE8
FFF4
FEB7
FEC9
0011
FEC3
FEEC
FFF6
FFFD
FFF5
FFEE
FFE6
FFE3
FFFA
FFFB
0000
FFDD
FFF0
FFFF
FFFC
FFED
FFC8
FFF9
FFF6
FFFB
FFDB
0000
FFD1
FFFF
FFF2
FFD2
FFF1
FF9B
FF96
0047
FFC5
FFF7
FF52
FFB5
FF9D
FED6
FF81
FF79
FFC8
FF9B
FEFA
FFA7
FF42
FFA9
FFDB
FE8C
FED6
FF71
FFE7
FF80
FFBD
FE8A
FFC0
FF82
FF04
FFF8
FFCE
FF44
FF75
FED5
FFC4
FEAD
FF6E
FF95
FE1D
FFB0
FED4
FFC5
FFCE
0085
FEC0
FEFA
FFAB
FEFD
FFBF
FED0
FF13
FFEE
FFE2
FFF0
FFDE
FF7F
0038
FFD0
FFDF
FFDF
FF63
FFC9
FF7B
FFCC
FFC3
FF87
0006
000F
0067
FF2A
FFF6
FF14
FF8D
00D3
FFF5
FF96
FFA0
FFA7
FF26
000C
000F
FFCD
FF69
FF76
FF9B
003E
FF2A
FF76
FF66
FF84
FFC1
FF78
FF7D
FEC5
FF9A
FFCF
FEA7
FEA9
FF67
FFE3
FFC1
FF36
FFD1
FF19
FF8F
0013
FF4A
FFC4
FEE9
FF8A
0065
FF76
FFA9
FEEA
FF26
005F
FFB5
FF51
FF13
FF83
0082
FFAF
0015
FFAF
FFDD
0083
FFC1
0055
FFB3
FF40
0066
FF54
FF63
FED0
004F
FEF8
FFDD
00A1
0040
0076
FFE5
FF72
00D5
0031
000F
FF63
FF69
FEF5
FFEF
FE72
FFD2
FFE6
FFC0
FFDD
0057
FF9F
0003
FFDE
FFEA
FFAF
FF9A
FFCD
0009
FFDA
FFAA
FF98
FFEA
FFD2
FFB6
FFB0
FF7A
FFD6
FFCA
002D
0039
FFB5
002B
FFC8
FFE2
FFA1
FF87
FFDB
FFDC
FFE1
FF69
FFA5
FFE9
FFDC
FFDE
FF90
0011
FF88
FFDA
FFD2
FFEB
FFF1
FFEC
FFF3
FFCA
FF8C
FFA8
0026
FF15
FFBA
FF88
FF93
FF2F
FF2C
FEF4
FEE9
FFEC
FF8E
FF70
FFD0
00DD
FF7A
FF78
FF9E
FFE5
0022
FFC0
0026
FE75
FEED
FE42
FF39
FEC7
003F
0099
FFBF
0017
FF02
FFD7
FF86
FEFD
FF98
FED7
00AE
FFF9
FF91
FF28
FF7E
FFA5
00BD
019C
FF84
FFDA
FFA7
0170
000F
FFED
FFE7
FFF7
FFEA
0037
FF6F
FFFE
FFFD
FFD7
FFD0
FF7D
FFE5
FFF9
FFF4
FFF6
FFDA
FFD5
004F
0051
0010
FF3B
FFC7
003A
FFE7
FF31
FF8C
FF31
FF4A
FFFF
FFB7
FF3E
FFA1
FF42
0038
00D7
FECB
FF2F
FEFC
FF44
FFD7
FE8D
FFDC
FFAD
0046
0087
FF36
FFE4
FF2B
FED1
FFA2
FE26
FFA0
FFC2
FF95
FFE3
0070
FF0B
FF45
FE9F
001C
FFFD
FF2B
FF3F
FF1B
00B0
FFE2
FE00
FFAE
FFE2
0054
FF4F
FF7A
FFFF
FFCF
FF51
FF9D
FFB6
FF8D
FF9F
FFB7
FE8E
FF90
FFB3
0035
FFE9
FEB0
FFAB
FFB8
FF7D
FFDB
FF0B
FFA9
0000
FF9D
FEB5
FECE
FFC5
FFDA
000B
0049
FF3C
FFF0
FFEE
FFF9
FFF2
FFF1
FFE1
FFEA
FFE5
FFED
FFEE
FFEB
FFF7
FFE5
FFEA
FFE9
FFEB
FFF6
FFF4
FFED
FFE6
FFF3
FFE7
FFEC
FFF7
FFED
FFEA
FFF8
FFEF
FFEA
FFE7
FFE8
FFEC
FFF3
FFF3
FFF3
FFF4
FFF8
FFE9
FFFC
FFFF
FFE8
FFE4
FFE3
FFF6
FFF3
FFE4
FFE6
FFF4
FFF4
FFF7
FFEE
FFEE
FFE1
FFE8
FFE9
FFE9
FFE3
FFF6
FFEE
FFEE
FFE6
FFEE
FFF5
FFFA
FFF9
FFE1
FFE7
FFE2
FFFC
FFF2
FFF5
FFE8
FFE5
FFFB
FFF5
FFF8
FFE3
FFE6
FFF1
FFED
FFE5
FFEB
FFF6
FFF9
FFF5
FFF9
FFF9
FFF0
FFEC
FFE7
FFE9
FFF6
FFE4
FFF9
FFF3
FFE8
0000
FFE5
FFF0
FFFC
FFEE
FFF6
FFE5
FFEA
0000
FFF7
FFED
FFEB
FFE4
FFFD
FFF4
FFFA
FFF7
FFFB
FFFF
FFF6
FFE5
FFE4
FFFB
FFFA
FFF8
FFEB
FFFB
FFF0
0000
FFF7
FFF3
FFF0
FFEA
FFFF
FFF1
FFF2
FFFB
FFFF
FFFA
FFEE
FFEA
FFF5
FFF0
FFEA
FFE6
FFF7
FFEC
FFFA
FFF3
FFFB
FFF3
FFF3
FFE8
FFF0
FFEB
FFEE
FFF1
FFEF
FFFD
FFE3
FFF8
FFEB
0000
FFEC
FFF6
FFEA
FFFC
FFEF
FFFE
FFE9
FFF0
FFF7
FFF0
FFF4
FFE5
FFF3
FFF6
FFE4
FFF0
FFED
FFFE
FFEC
FFEF
0000
FFEE
FFF5
FFF0
FFF1
FFF4
FFFD
FFF1
FFFC
FFE9
FFF7
FFFF
FFF8
FFEB
FFF4
FFED
FFF0
FFF6
FFF3
FFF8
FFF2
FFF8
FFF0
FFF8
FFF2
FFFA
FFEF
FFEE
FFEE
FFFA
FFF8
FFEB
FFF5
FFED
FFF5
FFF7
FFE2
FFF4
FFED
FFF1
FFFD
FFEB
FFF6
FFF0
FFFC
FFF1
FFE4
FFF5
FFED
FFE4
FFED
FFF4
FFE7
FFE1
FFEB
FFFB
FFEF
FFF7
FFEA
FFEC
0001
FFE9
FFF6
FFFA
FFEE
FFFB
FFED
FFE2
FFEA
FFEC
FFED
FFEF
FFF4
FFF8
FFF3
FFFD
FFE2
FFEC
FFFA
FFF0
FFE5
FFEB
FFF0
FFE2
FFFF
FFFE
FFEC
FFEC
FFF0
0000
FFEC
FFEC
FFEE
FFF1
FFF0
FFEC
0002
FFF2
000B
FFFF
FFE4
FFE2
FFE3
0006
FFF2
FFE4
FFEA
FFE6
FFF1
FFE5
FFF4
FFEB
FFFB
FFEB
FFFF
FFF4
0001
0006
FFF0
FFFD
0000
FFF8
FFE3
FFF9
FFF3
FFF9
FFE8
FFEC
FFEA
FFFA
FFEC
FFF2
FFEA
FFEE
FFED
FFFD
FFF6
FFF7
FFF7
FFFA
FFF7
0000
FFEF
FFF9
FFFE
FFFE
FFF2
FFF3
FFF5
FFEF
FFEF
FFEC
FFF0
FFE6
FFF5
FFED
FFFC
FFFE
FFE8
FFF2
FFFA
FFE8
FFFD
FFEE
FFF5
FFF5
FFFF
0000
FFFE
FFF7
FFFF
FFEF
FFEE
FFF4
FFF2
FFF5
FFED
FFF4
FFEC
FFED
0000
FFEB
FFEA
FFF7
FFEB
FFF1
0000
0001
FFEF
FFEA
FFE8
FFF8
FFF8
FFF5
FFE4
FFE9
FFF2
FFE4
FFF4
FFF0
FFEB
FFF4
FFE7
FFF3
FFED
FFEA
FFF8
FFED
FFE3
FFFC
FFF9
FFEF
FFF5
FFFB
0001
FFEE
FFF5
FFF1
FFFB
FFF8
FFF0
FFF1
FFE4
FFE4
FFF8
FFF4
FFF1
FFFC
FFF6
FFEF
FFF2
FFED
FFF2
FFEC
FFFA
FFF7
FFF7
FFE3
FFF6
0000
FFF0
FFEC
FFEB
FFFB
FFFF
FFF1
FFF7
FFF9
FFF0
FFFB
FFE2
0001
FFF1
FFE9
FFF4
FFED
FFEB
FFFA
FFFB
FFEC
FFFA
FFEE
FFF7
FFE4
FFE8
FFFD
FFFA
FFEE
FFF4
FFF6
FFFB
FFEF
FFF4
FFFF
FFFD
FFF0
FFFD
FFF2
FFF5
0001
FFF2
FFF8
0004
FFF5
FFF4
FFEC
FFEE
FFEF
FFF0
FFF4
FFE8
FFF6
FFF4
FFEE
FFE9
FFEA
FFF1
FFFD
FFF0
FFEC
FFE8
FFF2
FFFC
FFF8
FFF8
FFED
FFFC
FFF0
0001
0003
000D
FFF6
FFE9
FFEF
0002
FFF7
FFEF
FFEB
FFEE
FFE4
FFF8
FFF1
FFEB
FFE4
FFEB
FFF6
FFF1
FFEC
FFF7
FFEF
FFFB
0001
FFF8
FFFC
FFFF
FFF1
FFFC
0000
FFF5
FFF5
FFFC
FFE6
FFF8
FFFB
FFF2
FFF0
FFF3
0002
FFED
FFEF
FFEC
0003
FFEE
0000
FFE5
FFF0
FFFB
FFEF
FFF5
FFFD
0007
FFE3
FFE6
FFEB
0000
FFFC
FFF0
FFF8
FFE5
FFF1
FFEE
FFF2
FFF0
FFEC
FFF6
FFF6
0001
FFF2
FFED
FFFA
FFFB
FFF1
0003
FFF3
FFE7
FFEB
FFEB
FFE6
FFF9
FFF7
FFF4
FFEE
FFF8
FFEE
FFEA
FFFC
FFFF
FFF0
FFE7
FFF8
FFEF
FFEC
FFE5
FFF5
FFF7
FFF0
FFF4
FFEC
FFE5
0000
FFF1
FFF7
FFEC
FFF1
FFF7
FFFC
FFF5
FFEB
FFEF
FFE6
FFEF
FFF5
FFE9
FFF7
FFFC
FFEC
FFFF
0000
0000
FFFC
FFEA
FFF0
FFF1
FFEB
FFF9
FFF3
FFF7
FFEE
FFE9
FFF0
FFEE
FFF8
FFF1
FFF6
FFF1
FFF1
FFEB
FFF2
FFFA
FFE9
FFF4
FFFE
FFFD
FFEB
FFF5
FFF3
FFFA
FFFE
FFEF
FFE4
FFE4
FFF9
0002
FFEB
FFEE
FFEC
0000
FFFC
FFE4
FFF0
FFFF
FFF4
FFE9
FFF5
FFE6
FFE3
FFFF
FFE7
0001
FFFB
FFFD
FFF7
FFF0
FFE8
FFF4
FFEA
FFED
FFF2
FFE1
FFEE
FFEB
FFF8
FFF4
FFF9
FFE2
FFED
FFFC
FFF2
FFF2
FFFC
FFF8
FFEC
FFEA
0000
FFF2
FFF2
FFEF
FFED
FFF5
FFEE
FFF5
FFF3
FFE4
FFED
FFF9
FFEE
FFFD
FFFB
FFEC
FFEE
FFF0
FFFD
0001
FFEF
FFE4
FFF8
FFF4
FFEA
FFF7
FFE3
FFFA
FFEE
FFEC
FFEC
FFF9
FFE8
0001
FFEA
FFF4
FFE9
FFF7
FFEC
FFFA
FFEF
FFF8
FFEF
FFEB
0001
FFF4
FFF0
FFE3
FFE7
FFE6
FFF9
FFEF
FFFF
FFF6
FFF6
0000
FFED
FFF8
FFE6
FFE4
FFED
FFFA
FFF0
FFE6
FFF0
FFF6
FFE8
FFE5
0002
FFF1
FFF2
FFF2
FFFA
FFEE
FFEF
FFF4
FFEB
0000
FFF8
FFE8
FFEF
FFF1
FFF5
FFF6
FFF4
FFEC
FFF0
FFF4
FFEE
FFF9
FFE2
FFF2
FFED
FFED
FFE8
FFF9
FFFF
FFEF
FFF0
FFF2
FFE9
FFEC
FFF8
0000
0000
FFE4
FFED
FFF0
0000
0000
0000
FFFB
FFE9
FFF1
FFEB
FFE7
FFEB
FFF9
FFE5
FFEF
FFE8
FFF1
FFF6
FFFC
FFE7
FFF3
FFEF
FFD8
FFEB
FFF3
FFF5
FFE8
FFBD
FFE2
FFF8
FFD4
FFCC
FFF7
FFFA
FFCD
FFC5
FFFA
FFED
FFF8
FFFF
FFFA
FFEF
0001
FFEB
FFF8
FFFF
FFF3
0000
FFE9
FFEE
FFF5
0000
FFE9
FFE8
FFF9
FFE8
FFE2
FFEF
FFE9
FFE7
FFE6
FFFB
FFEB
FFE6
FFEF
FFEE
FFED
FFEF
FFF9
FFEC
FFF4
FFE8
FFE7
FFF8
0009
FFF9
FFF4
FFE3
FFEC
FFE6
0000
FFEF
FFF4
FFEB
FFEF
FFE5
0029
FFE8
FFEE
FFE6
FFFC
FFE7
FFF9
FFF8
FFEB
FFF4
FFF4
FFB6
FFE7
FFF4
FFD6
FFEC
FFA5
FFEC
FFFE
FFE4
FFCB
FF9F
FFFB
FFBF
FFDE
FFF4
FFB6
FFE7
FFE7
FFFA
FFEF
FFEE
FFF7
FFF7
FFEF
FFF7
FFEB
FFF6
FFEB
FFED
FFFD
FFFC
FFE9
FFE6
FFEC
FFF7
FFE9
FFF3
FFEE
FFF4
FFE1
FFF0
FFE6
FFEE
FFE9
FFF7
0000
FFE7
FFF3
FFFC
FFE5
FFD8
FFF3
FFF5
FFE6
FFCE
FFDE
FFF7
FFF5
FFEF
FFDA
FFCC
FFE3
FFF2
FFDE
FFA9
FFE9
FFF5
FFED
FFE6
FFED
FFFA
0000
FFF2
FFF7
FFE9
FFDB
FFE9
FFFD
FFF8
FFFB
FF96
FFF0
FFF4
FFC7
FFA6
FFB7
FFF3
FFC4
0010
FFBB
FF8A
FFF5
FFFE
0000
0001
FFC7
FFEA
FFEC
FFF1
FFDE
FFD0
FFF4
FFEC
FFF4
FFD3
FFE2
FFEE
FFE5
FFD6
FFB4
FFE8
FFE3
FFB9
FFC1
FFED
FFFE
FFEB
FFEB
FFF5
0000
FFEF
FFF8
FFF9
FFF5
FFF9
FFED
FFE5
FFF9
FFEA
FFF4
FFEE
FFEF
FFE8
FFF5
FFEB
FFF3
FFE8
FFE2
FFE3
FFF9
FFE9
FFFA
FFF9
FFE7
FFEC
FFF7
FFF8
FFF1
FFF2
FFEE
FFED
FFE4
FFED
FFE9
FFF1
FFFA
FFE3
FFE3
FFFB
FFEE
FFF0
FFF0
FFEB
FFF2
FFF1
FFF7
FFF4
0001
FFF5
FFFB
FFF5
FFEF
FFF3
FFFC
FFE3
FFF4
FFFF
FFE3
FFF0
FFF3
FFCC
FFD0
FFE6
FFE0
FFEB
FFEE
FFDC
0000
FFFB
FFE4
FFF3
FFF9
FFEB
FFE8
FFE7
0008
FFF3
FFE6
FFE9
FFF3
FFE6
FFFD
FFE3
FFFF
FFBC
FFF8
FFEA
0005
FFF0
FFE2
FFFA
FFF2
FFFD
FFE7
FFE2
FFFC
FFEF
FFEE
FFF6
FFFE
0000
FFF5
FFF8
FFEF
FFF8
FFFC
FFFA
FFE9
0000
FFF1
FFF9
FFFB
FFE4
FFF9
FFFC
FFF2
FFEC
FFF6
FFFB
FFE4
FFF4
FFF6
0000
FFED
FFFF
FFF1
FFF9
FFF3
FFFA
0000
FFF8
FFF6
FFFB
FFEF
FFF5
FFF5
FFF5
FFE6
FFEA
FFEF
FFFD
FFF1
0001
FFE7
FFF0
FFEC
FFF4
FFF5
FFE8
FFF8
FFD6
FFFE
FFE9
FFEC
FFE8
FFB8
FFF7
FFF7
FFF1
FFC9
FFAC
FFE2
FFD9
FFCF
FFA9
FFB6
FFEF
FFC0
FFAD
FFBE
FFF4
FFEC
FFEF
FFF5
FFEA
FFF3
FFF4
FFF2
FFF4
FFEB
FFFF
FFFF
FFF7
FFEC
FFF4
FFEA
FFEE
FFF8
FFFC
FFF1
FFE7
FFE4
FFF6
FFE9
FFFF
FFCB
0067
FFDA
0028
0025
FFB0
0046
0006
0007
FFEB
FF80
0069
0052
000B
0024
0071
0090
0107
00AD
00B2
FFF9
FF87
FFEA
FFE1
FFBE
0082
000C
FFCD
FFCC
FFCE
FFF8
FFE0
0020
FFF3
0011
002A
FFE8
FFE6
FFE8
000C
006C
FF96
FFB4
FFF1
004B
0031
FFD5
FFD2
FFFF
0032
FFFD
0068
00A0
000D
FDF2
FF6C
FF3C
FF5C
FFE2
FEEB
FF7C
FF46
FF81
0001
FF36
FF83
0036
FF47
FD94
0019
005D
0079
FF54
FF40
FFF1
005A
0054
0031
0060
FFF6
00A7
FECB
FEF7
0006
003C
0088
002E
001C
FF8A
FFCE
0006
0025
FFE3
FFA8
FF28
FF9C
FF9F
FF8D
FFCA
FFFF
0078
00AE
FF34
00C0
0014
0016
00D0
FFEF
FF9B
005A
0045
FF75
FFCA
FFC5
0021
FF9C
FFF3
0009
FF8B
FFB9
0023
0014
FFA1
FF95
FFE3
0047
002B
0003
003D
003A
008F
FEF3
FFC5
FF47
FF53
FF64
0048
0004
FFE0
00D8
0055
002C
FFF5
0026
0019
0024
FFD2
FFFB
000D
FFA0
FFEA
FF98
0016
FFBA
FFC1
FFC5
FF7B
FFCA
FF89
002D
00E8
0064
00B6
0033
0072
0094
003B
FF46
FFE3
FFFD
FF9F
FF7F
FFC4
004A
0005
FFBE
0096
FFD8
FFA5
FFAB
FEE4
FFDB
FF49
FF10
FE90
FFAA
FF69
FF9A
FFFD
0035
008B
FFE1
0097
0091
00EB
FF53
0046
00FD
00AC
003E
FE8C
FFCB
003C
0033
0053
0076
FFAE
FFF3
FFBD
00C2
FF5F
0095
FF1E
FF8F
002D
0000
FF54
FFB6
FFCD
0011
0028
003E
0067
FFF0
FFC0
FFD7
FFC9
0008
00C5
00A2
0081
00E2
001E
FFEB
FFA7
FFA5
0018
FFAD
FF5C
FEFA
FED8
FFB4
FF9D
FF25
FF6D
003B
FF4F
FF4D
FF84
FFF4
0034
FFB2
FF81
FEC5
0001
0156
000E
00A3
FFAB
0016
FFF8
00BD
004F
FFA7
FF47
FF57
FFD3
FF8A
FFDF
FF97
FEED
0066
FF43
FF21
FFB5
FFA0
FF04
FEE5
FEF0
0052
FFF5
FE9E
FE72
FEFE
002C
004E
FF82
FFF6
FF7F
FFE7
FF9C
FFBD
0067
FEB0
FF77
FFDB
0062
FF5C
FFA8
0015
0012
FFD4
FFCB
FFED
005A
FFC0
0028
0025
FF97
FF58
FF3B
0037
FF2C
FF98
0005
0014
FF9C
FFE4
FFE5
0054
0025
FFA9
0051
0019
0002
005D
004D
FFF5
FFE4
FF72
FFFE
0002
FFDC
005D
FFF8
0078
00A1
0075
00C6
0092
FF81
0029
FFAC
0065
FF1E
FE7E
0011
0074
000A
FEF1
FDE0
001F
0037
0040
FFAF
000E
FFA6
FF6D
FF0D
FEE2
FFCA
FF48
FF70
FFF9
006E
0029
FF82
FFF4
004B
004C
FF03
0005
004C
0045
FFA6
FED6
0052
0052
004B
0079
005E
000D
0049
0081
0030
FEA0
FFED
0037
FFA7
FF1B
FE0E
FFF4
FFE7
FF78
FF61
001B
FFC1
002C
FFA6
FFFC
FF88
FFE8
FFFA
FFF5
0003
FFFC
FFF7
FFFC
FFEA
FFFB
FFF5
FFF0
FFF7
0000
FFF4
FFF6
FFF1
FFFB
0002
FFED
FFFE
FFF7
0000
FFFF
0000
FFED
FFF9
FFF2
FFFE
0001
FFFB
0000
FFED
FFED
FFFD
FFF6
FFF0
FFF3
FFF4
0000
FFED
FFE9
0000
FFEC
FFFD
FFFE
FFE9
FFF7
FFEE
FFFC
FFED
0001
FFFC
FFF7
FFFB
0000
0004
FFFE
FFFD
FFED
FFEE
FFFB
FFF2
FFE8
FFFC
0002
FFF1
FFE7
FFF7
0000
0002
FFF4
FFF0
FFF8
0005
FFFB
FFF3
FFE1
FFE9
FFFD
000E
0004
FFFE
FFEE
FFF2
0007
FFF0
0003
000A
FFF9
FFF8
FFE7
FFEC
0004
FFEB
0001
FFEA
FFF2
FFF4
FFF0
FFF4
FFFE
FFF6
FFFE
FFF5
FFF0
FFFE
FFFF
FFF3
FFF9
0002
FFEC
FFFD
FFFD
0001
FFF1
FFF7
FFF7
FFF8
0003
FFF2
FFF5
FFFA
FFFB
FFFC
FFF2
FFF4
FFEB
FFF8
FFFA
FFF3
FFF4
0002
FFEE
FFF7
FFFB
FFF8
FFEE
FFF8
FFF3
FFFD
FFED
FFFA
FFF5
FFEA
FFE5
FFEC
FFF5
FFFD
FFE8
FFFD
FFF2
FFFE
FFEE
0001
0000
FFF9
FFF7
FFFE
FFFC
FFF0
FFF1
FFEB
FFEB
FFFB
FFF3
FFF1
0002
FFEF
FFF7
FFE9
FFED
FFF0
FFF9
FFF5
FFED
FFED
FFEB
0000
FFEA
FFE8
FFEB
FFF8
FFF0
FFFF
FFF5
FFFC
FFEE
FFEA
FFF8
FFF0
FFE8
FFF6
FFF7
FFFB
FFFA
FFF1
FFFC
FFEA
FFF1
FFF0
FFF3
FFF3
FFF0
FFF3
0002
FFF6
FFF1
FFF5
0001
FFFF
FFF6
FFE9
FFFD
FFFA
FFF8
FFFB
FFF1
FFFD
0002
FFF3
FFF0
0000
FFED
FFF9
0000
FFEB
FFF7
FFEB
FFFA
0000
0000
FFF9
FFEA
FFF6
FFF3
FFEA
FFEF
FFF1
FFF7
0002
FFEF
0000
FFF1
FFFA
FFF8
FFFB
FFFE
FFF7
FFF3
FFF2
FFF3
FFE5
FFEB
FFEE
FFFF
FFF5
FFF8
FFF5
FFFD
FFFD
FFF2
FFFB
FFFC
FFFE
FFEF
FFEF
FFF1
FFF5
FFFA
0001
FFED
FFEA
FFEE
FFED
FFFA
FFE8
FFEF
FFEA
FFEE
FFEE
FFFF
FFF9
FFF6
0000
FFF3
FFFF
FFEA
FFE9
0000
FFF4
FFFC
FFEF
FFFC
FFF9
0001
FFE3
FFF0
0003
FFFF
FFF9
FFE9
FFFB
FFFE
0001
FFFE
FFF5
0000
FFEB
FFF9
FFFA
FFEA
FFF0
FFF2
0002
FFF8
FFEB
FFF3
FFE9
FFFD
FFFB
FFEB
FFF8
FFEB
0000
FFF1
FFF6
FFED
FFFC
FFF7
FFEE
FFF2
0001
FFF4
FFF5
FFEE
FFFC
FFF2
FFEB
FFF0
FFED
FFFA
FFEC
0000
FFFF
FFFD
FFF8
FFF6
FFEC
FFFD
FFFC
FFF9
FFEA
FFEE
FFFE
FFF5
0001
0001
FFF5
FFF9
FFEA
FFED
FFF7
FFF1
FFF9
FFF1
FFF1
FFF7
FFF2
FFEE
FFE7
FFF3
FFE9
FFF5
FFEF
FFF3
FFED
0000
FFFE
FFFE
FFEB
FFE8
FFFA
FFFA
FFE8
FFF8
FFF4
FFF9
0000
FFFA
0001
FFFE
FFF8
FFEF
FFEF
FFF5
FFF1
FFED
FFED
FFF8
FFF0
FFEA
FFEF
FFFB
FFEB
FFE9
FFE3
0000
FFFA
FFE8
FFF0
FFEA
FFF6
FFF4
FFF1
FFE8
FFF8
FFF6
FFFE
FFF2
FFE9
FFFB
FFF6
FFF3
FFE9
FFF9
FFFA
FFF2
FFF9
0001
FFFA
FFFC
FFE9
FFF5
FFF5
FFE5
FFF9
FFF7
FFEB
FFFF
FFE8
FFF9
FFFE
0000
FFFA
FFEF
FFF9
FFFD
FFFA
FFF3
FFF9
FFF8
FFF3
FFEE
FFFB
0000
FFEA
FFEC
FFFC
0003
FFF2
FFF8
FFF6
FFF8
FFF7
FFE6
FFF1
FFF9
FFF0
FFF2
FFF8
0000
FFFB
FFFB
FFED
FFEB
FFEC
FFF9
FFED
FFF6
FFF2
FFE7
FFFE
FFF7
FFEA
FFF3
FFF5
FFED
FFFC
FFEF
FFEE
FFFB
FFEA
0001
FFFC
FFEC
FFE2
FFFB
FFFB
0008
FFF7
FFEA
FFF2
FFF6
FFE9
FFE9
FFF7
FFF8
FFFB
FFED
FFE9
FFE8
FFFC
FFEB
FFED
FFEF
FFF2
FFF2
FFFD
FFF7
FFED
FFE4
FFFE
FFED
0000
FFF2
FFF7
FFF8
FFE9
FFF0
FFF9
FFEE
FFF7
FFED
FFEF
FFEA
FFF2
FFFD
FFF5
FFF5
FFF5
FFF1
FFEE
FFFA
0000
FFEF
FFF5
FFF2
FFFF
FFF4
FFF6
FFE6
0001
FFFF
FFF9
FFE3
FFF2
FFEF
FFED
FFE7
FFEB
FFE9
FFFC
0001
FFF3
FFFE
FFED
FFED
FFED
FFEC
FFF9
FFF7
FFF7
FFEB
FFEC
FFE9
FFFB
FFFA
0000
FFFA
FFEB
0000
FFF2
FFEB
FFF7
0000
FFFD
FFFD
FFF8
FFF7
FFFE
FFEB
FFF3
FFEE
FFFC
FFF9
FFF5
FFEE
FFF9
FFF4
FFEF
FFEC
FFEF
0000
FFF0
FFFF
FFF1
FFEC
FFEF
FFED
0000
FFF2
FFF3
FFFF
FFF1
FFF4
FFEB
FFF8
FFF7
FFE9
FFFD
FFFB
FFFF
FFEE
FFF3
FFF3
FFF3
FFFC
FFEC
FFFB
FFF6
FFF8
FFF5
0001
FFF9
0000
FFF0
FFE9
FFEE
FFFE
FFEE
FFF8
FFFD
FFFC
FFFC
FFF7
FFFB
FFE8
FFE8
FFFF
FFFE
FFE5
FFE8
FFFE
FFF3
FFF3
FFE7
FFF7
FFEB
FFEC
FFEB
FFED
FFFB
0000
FFF7
FFEC
FFE9
FFF0
FFFA
FFF3
0001
FFEF
FFEE
FFFB
FFFD
FFEC
FFED
FFFD
FFFC
FFEC
FFE1
FFE8
FFED
FFFE
FFF2
FFEA
FFF8
FFE8
FFF3
0000
FFFB
FFE4
FFFA
FFF4
0000
FFF8
FFF5
FFED
FFE7
0000
FFED
FFF8
FFF9
FFFB
FFEB
FFE7
FFF6
FFE9
FFF0
FFFC
FFFA
FFE3
FFEA
FFFA
FFF5
0000
FFEE
FFFD
FFFB
FFF9
FFEF
FFF6
FFEF
FFF5
FFF8
FFFF
FFE8
0000
FFF7
0000
FFE8
FFE4
FFF5
FFEE
FFF6
FFE9
FFE5
FFE6
FFFA
FFFA
FFEF
FFF1
FFF8
FFEF
FFFC
0000
FFF6
FFEB
FFE8
FFFA
FFF3
FFEC
FFED
FFF4
FFE8
FFEF
FFEB
FFF0
FFF4
FFEF
FFED
FFEA
FFFB
FFF1
FFFC
FFF3
0000
FFF8
FFF1
FFEB
FFEC
FFEF
FFF1
FFF4
0000
0001
FFFA
FFF4
FFF6
FFEC
FFEE
FFF7
FFF3
FFF4
FFFA
FFF6
FFE9
FFFC
0000
FFF0
0000
FFF1
FFE9
FFFF
FFEA
FFE7
FFF0
FFEF
FFF5
FFF0
FFF1
FFEC
FFEB
0001
0012
000C
FFF7
FFEA
0009
FFFF
000F
FFE5
FFF6
FFE1
0011
FFEA
FFE5
FFE9
FFE8
0009
000A
FFFA
FFF2
0002
0008
0003
FFF7
FFE8
FFE8
FFEF
FFFB
FFE3
FFF7
FFE9
FFE2
FFEE
FFFF
FFF3
FFF8
FFE4
FFFF
0007
FFFA
FFE5
FFE7
0003
0019
FFF8
FFF7
FFFD
0000
FFF6
FFF0
FFEE
FFFE
FFF7
FFF7
FFFB
FFFA
FFF8
000D
FFF4
FFDE
FFF4
0000
FFF5
FFC8
FFFB
FFFC
FFF9
FFE8
FFC1
FFF9
FFEF
FFFD
FFE5
FFDC
FFF0
0009
FFF6
FFEB
FFCC
FFF5
FFEC
FFFE
FFD6
FFEF
0002
0006
FFFC
FFFA
0002
FFEB
FFFC
0004
0003
FFE8
FFF3
FFF7
FFCD
FFF7
FFE3
FFFA
FFF3
FFE2
FFE6
FFEE
FFF4
FFF4
FFEF
FFF5
FFEF
FFF0
FFF5
FFF5
0007
FFFC
FFF8
FFE6
FFE5
0003
FFFD
FFF2
FFF8
FFF0
FFFC
FFEA
FFEC
FFFA
000D
0006
000C
FFFA
FFDD
0000
0000
FFF7
FFF2
0009
0008
0003
FFF0
FFF0
FFF4
FFE8
FFE5
FFE5
FFF4
FFFC
FFF9
FFDD
FFEA
FFEA
FFEC
FFF7
FFEA
FFF3
FFF6
FFEF
FFF4
FFF3
FFEC
FFF6
000B
000A
0006
FFFE
0000
FFE2
FFF0
FFFD
FFEA
FFF0
FFF0
FFF0
0002
0000
FFF9
FFF8
FFF4
FFF7
FFF8
FFF8
0001
0001
FFF3
FFEC
FFF2
0002
FFF7
FFF9
FFF7
FFF2
FFD9
000B
FFE8
FFFA
FFE5
0010
0000
FFFA
FFEB
FFF1
FFF2
FFF2
FFFC
FFF3
FFE4
FFE5
FFE9
FFF8
FFF1
FFF8
FFF1
FFE9
FFF9
FFFB
FFF9
FFFD
FFEB
FFFC
FFF9
FFFA
FFF3
FFEB
FFE9
FFE0
FFE6
FFE4
FFE7
0008
FFD2
FFE3
FFFA
FFE8
FFF9
FFDA
FFEE
FFF3
FFF6
FFFB
FFFC
FFF1
FFF3
FFE7
0000
FFB5
FFEE
FFFB
FFF5
FFEE
FFE6
FFFF
FFFC
FFD3
FFA8
FFCC
0000
0001
FFF2
FFD2
000D
FFE8
FFE9
0003
000C
FFE4
FFE7
FFEE
FFF0
FFF5
FFE4
FFFA
FFE3
FFE9
FFF5
FFE8
0022
0010
FFE7
FFFA
FFEA
0011
FFFC
FFE8
0021
FFFD
FFF1
FFE6
FFEB
FFE7
FFF7
FFFA
FFED
FFE9
FFE8
FFE9
FFEE
FFF9
FFE4
FFE4
FFE7
FFFC
FFF2
0002
FFFE
FFE3
FFE1
FFEB
FFFC
FFF4
FFE6
FFEB
FFFF
FFEC
FFFF
FFE9
FFF7
FFED
FFE6
FFED
FFF5
FFE8
FFE5
FFEE
FFFE
FFEC
FFFE
FFF7
FFE7
FFE6
FFFA
FFF7
FFEC
FFF5
FFF9
FFED
FFF3
FFFA
FFED
FFF8
000C
FFC1
FFE9
FFF0
FFF4
001C
FFE5
FFFC
FFFC
FFE7
FFC7
FFE2
FFF6
FFFD
FFFF
0006
FFFD
FFF7
FFE4
0005
FFE6
FFF5
0003
FFF9
FFFC
FFEA
FFED
0011
FFF1
FFED
FFF8
FFE4
FFEC
FFDE
FFF3
FFFC
FFF6
FFE1
FFFF
0000
FFEA
FFF1
FFF2
FFE2
FFFF
0010
FFEA
FFF3
FFF6
FFF1
0001
0000
FFDC
FFE9
FFF7
FFF9
FFF8
FFE7
FFEB
FFE8
FFF5
FFF6
0000
0001
FFE4
FFEC
FFF4
FFF8
FFE3
FFEB
FFEF
FFED
FFF2
FFFF
FFE9
FFF5
FFEC
FFF0
FFE6
FFF9
0002
FFE5
FFF9
0000
FFEF
FFF5
0001
0003
FFE7
FFF8
FFF0
0000
FFF2
FFFF
FFF3
FFEB
FFF8
FFF4
0004
FFFE
FFFA
0003
FFFD
FFEB
FFFA
FFEF
0003
FFFE
FFF6
FFED
0006
FFED
FFEA
FFC8
FFC9
0000
FFFA
FFEA
FFCD
FFDF
FFFF
FFF6
FFE1
FFC2
FFE5
FFF5
FFEB
FFE0
FFD4
FFF1
FFDB
FFDF
FFF0
FFD9
FFDF
FFDF
FFFD
0001
FFF3
FFF4
FFDE
FFCF
000B
FFEC
FFF0
FFFF
FFEB
000C
FFE5
FFDE
0002
FFFB
FFED
FFE4
FFE1
FFEB
FFE0
FFCA
FFE9
FFE4
0001
0000
0001
FFFB
FFF8
FFFA
FFF7
0000
FFFC
FFEC
FFFA
FFF1
0003
FFFF
FFEC
FFED
FFF9
FFFD
FFF7
FFF9
FFFE
FFF6
FFFB
FFF8
FFEF
FFF4
FFEC
FFF1
FFEA
FFE3
FFF0
FFE8
FFEB
FFFA
FFE9
0005
FFF1
FFFB
FFF0
FFEA
0004
FFFA
FFF0
FFEB
FFDF
FFFE
0001
FFED
FFEA
FFF1
FFB0
FFE5
FF9B
FFEC
FFE6
FFB9
FFDC
FFC0
FFF1
FFE0
FFC8
FFD6
FFC9
FFEE
FFDD
FFF6
FFD2
FFC1
FFE5
FFE7
FFF1
FFBD
FFCB
FFF2
FFE7
FFEF
FFE8
FFF6
FFF7
FFF0
FFF3
FFE2
FFF5
FFF7
FFF0
FFFB
FFF6
FFF0
FFE7
FFEB
FFFE
FFE8
FFE7
FFF7
FFEF
FFF9
FFEE
FFF9
FFF5
FFFE
FFF8
0001
FFF8
FFF4
FFE2
FFEB
FFF6
FFFF
FFFF
FFF9
FFF8
FFF7
0001
FFF9
FFF7
FFEC
0000
FFFC
FFFE
FFEB
FFFA
FFF4
0004
FFF1
FFEA
FFFA
FFEC
FFFC
FFF1
FFE8
FFFB
0004
0005
0005
FFED
FFEC
FFFC
0002
FFF1
FFF2
FFF3
FFED
0005
FFF2
FFE9
FFEF
FFFF
0002
FFFD
FFED
FFFB
FFEC
FFCE
FFE1
FFE5
0000
FFF0
FFFA
FFDB
FFDD
FFF3
0008
0003
FFF3
FFEF
FFD8
FFF0
FFE3
FFE2
FFDC
FFF1
FFF9
000A
FFE3
FFF0
FFB3
FFF1
0017
FF8D
FFFB
FFBB
FFE4
000E
FF8D
FFF4
FFE3
FFD1
0005
FFC0
FFF5
FFD6
FF9A
FFCC
FFCF
FFF1
FFC2
FF98
FFE1
FFFC
0000
FFF2
0001
FFF9
FFF7
FFEC
0001
FFF6
FFFC
FFF8
FFFB
FFF8
FFEF
0000
FFF6
FFF1
FFF9
FFF1
FFFC
FFF8
FFFD
FFF2
FFFA
FFF1
FFEC
0000
FFF4
FFEB
FFF0
FFF6
0000
FFF1
FFFD
FFE7
FFED
FFEE
FFEF
FFF4
FFED
FFEF
FFF2
FFF3
FFF9
FFEC
FFFE
FFE9
FFF6
FFE5
FFEA
FFF9
FFF0
FFEE
FFEF
FFFB
FFEE
FFEA
FFEA
FFF1
FFF2
FFF6
FFEF
FFEC
FFE5
FFED
FFF5
FFFC
FFE5
FFF1
FFE6
FFDF
FFED
FFF6
FFEB
FFE5
FFF1
FFEA
FFEE
FFFB
FFFB
FFEB
FFFA
FFE2
FFE6
FFF4
FFFD
FFEC
FFED
FFF4
FFEF
FFF0
FFFA
FFF5
FFEE
0001
FFFD
FFF2
FFFC
FFE7
FFF9
FFF5
FFF7
0022
000F
002F
000B
003B
FFE6
009B
FF36
FF17
FFD3
FFE7
0057
FFC8
FF2B
FF8E
008D
FFD4
00B6
008A
009A
FF67
FFEF
FFCE
FE8C
FFD0
001E
FFC9
FFDF
FFEB
000D
0023
FFF0
FFCD
FF7D
0041
0003
FFF8
FFFB
FFF8
001E
FFF6
FFDA
FFFB
000D
FFCD
FFE0
FFF0
FFCA
FFE4
0002
001F
00B7
002B
0007
0026
00CD
0091
0047
FFC5
006C
FFE0
FFE8
00C4
0039
002C
FEBA
FFB2
FFD4
0027
0033
FFDC
FFF3
FEA8
FF2B
FF88
001D
FFDD
FFC2
FFF0
FFE0
FEF7
0044
0047
FFF6
FFA0
FFAB
0098
FFB6
FFBC
FF09
0053
000F
FFF3
FFF5
0039
0004
FFF5
0037
0020
0088
FFAA
FF73
FFC9
0003
FF61
0004
0012
0039
0029
FF7A
0057
FFFB
FFCE
FF76
FFAF
FF92
FFF0
FFCB
FFC3
0087
FFF8
FF75
00E5
0002
00C7
FFAB
FF61
FF3D
004F
0003
FEF1
FFC8
FFC0
FFE4
FF47
001C
0077
00A4
FFE0
FF31
009F
0052
0091
FF87
FFFF
FFFE
0019
008B
003F
0059
00C4
0029
FF2B
0043
00B2
FFBD
0008
FF3B
FFBF
FFD8
FF87
FFAB
FFE0
FFAD
FF60
FFD4
FFF2
001B
FFBC
FFB7
0008
0010
FFF4
FF52
FFE5
00E1
0081
005B
FFF2
00CD
0080
0010
FF99
FFC1
0029
0060
0070
FFDA
FFB8
FF2F
FFBF
008D
0097
0090
FFB3
00CD
00AE
FED7
FF4D
FFB7
0019
FFCF
FFBE
001E
004C
0000
FFBC
0038
000F
FF96
FF9E
FFF9
FFE5
0063
FFD9
FF35
0039
FFED
FFFA
006E
FF87
FF9D
FF4A
FFF1
0055
0096
0004
FFA8
FF7E
FFBE
0065
0069
0019
FFB9
FFA3
0079
0053
FFAA
004B
000C
FF5D
FFB0
FFDF
0007
000B
FF41
FFE9
FF77
FFE1
FFCB
0052
FFB2
FF26
FFDF
00EE
FE59
FEDE
FFB6
FEF2
000B
FFBF
00D6
008E
FF79
00A3
FF44
0075
0037
FFE4
004F
005C
FED4
FF59
0055
0055
00A1
FFCA
FFFE
0037
00BE
0012
002C
FF2A
FF30
007B
FFA6
0057
FF81
0034
FFF8
FF23
FF0E
FEA8
FF2B
FE98
0023
FF8B
FF46
FF5D
FFE7
0075
FFC8
FFD8
0029
0052
FFF8
FFE5
000F
0004
FFCC
FFCC
0032
FFBE
0025
FFE5
FFD6
FFBF
FFAA
001C
FF7F
00A9
FFFA
FFFE
000C
0063
0030
FFDF
FF69
FF74
FFD6
FFA7
FF4D
FF75
FF40
004C
FFCB
FFCD
0072
FFE6
00D6
FF8C
FF52
FFF9
0044
00EC
FE53
FE59
FF5A
0058
FFA8
FFAF
000D
FF96
FFBE
0031
004D
0014
005F
0038
FF67
00A9
0078
002A
FF2B
0007
FFBE
FF92
FFBF
002A
00A3
FFD7
FFEE
FFD6
FFE3
0017
FF9B
000C
FFD2
FEE8
FF8A
003F
0062
FF2C
FF9E
005F
FFEC
FFD7
FEE9
FFCC
0031
FF2A
FEFC
FEF2
FFFE
FEA3
FE2F
FE7F
FF74
0050
0075
FF62
FFCF
FFD4
FFE2
FFEA
FF8F
FFB6
FFF8
000C
FFE5
FFAC
0071
FFFC
FFDA
FFDC
FF50
FFD7
FFF9
FFF6
FFF5
FFA3
FFED
FFE9
FFF1
FFF4
FFE4
FFF9
FFED
FFEB
FFF7
000A
FFF8
FFF2
FFDA
FFF9
FFAE
FFE6
FFED
FFE8
FFF6
FFEA
FFEC
FFED
FFEC
FFF3
FFEE
FFE5
FFF0
FFF0
FFF0
FF60
FFB1
FF7D
FFB1
FFFA
FFA0
FFD7
FF65
FFAC
FFD9
FF81
FF5E
FF91
FF9A
FFF0
FFBE
FF8D
FFB1
FF90
FFFA
FFA2
FFC5
FFB6
FF9C
FFC6
FFC5
FF3D
FFE6
0008
FFDF
FFC1
004D
FFF1
FFE8
FFF0
FFB4
FFF2
FFC7
0046
FFE5
002A
FF7C
FF93
FFAC
000A
FFAF
FFCE
FFA4
FFDA
FFEC
FFB8
FF93
FFC4
0008
FFFF
FFFB
FFAB
FFBF
FFFC
FFE4
FF81
FFAE
FFCB
FFEF
0015
FFBD
FFCA
FFE6
FFFB
FFF4
001B
FFEF
FFE6
FFF9
FFEA
FFAD
FFAB
FF8D
FFB6
001A
FF56
FF97
FF83
FFF4
0005
FF21
FFEB
FF73
FFB8
0007
FF8F
0029
FFBB
FFD8
FFE7
FF9E
0010
FF8F
FFBB
FFCB
FF9E
FF6A
FFA7
FFE3
FFAA
FFD8
FF4B
FFCB
FFE9
FF9F
FFA8
FF82
FFE8
FFE7
FFF0
FF88
FF83
FFA1
FFF0
FFF9
FF88
FFB5
FFA9
FFF6
FFF4
FFDE
FFBF
FFEA
0003
FFF1
FF9D
FF51
FFE9
FFFB
FFDA
FFE9
FFEB
FFF9
FFE3
FFC9
FFB1
FFEC
FFF8
FFF1
FFF7
FFB3
FFF9
FFF1
FFF1
0008
FFE0
FFEE
FFEF
0000
FFEE
FFCE
0072
FFEB
FFEB
FFF6
FFB9
FFC0
FFEE
FFFC
FFE5
0008
FFE9
FFE8
FFFA
FFE8
FFE1
FFDC
FFF8
FFE9
FFFB
FFE8
FF9B
FFFA
FFE2
FFEF
FFB6
FFC4
FFBA
FFF8
FFF7
FF69
FFD9
FFE3
FFE6
FFE6
FFD0
FF97
FFE0
FFF1
FFFC
FFDD
FFE4
FFE4
FFF6
FFFE
FF7A
FFCB
002F
0032
FFA6
FFD0
FFB3
002C
FFFC
FFAA
FF9C
FF87
FFDA
FF85
FF8A
FF94
FFEA
FFDB
FFED
FFB5
FF9E
FFD1
FFC1
FFFC
FFCD
FFC4
FF64
FFB8
FFE0
FFEC
FFDD
FF80
0000
FFEE
FFD7
007A
0044
FFFC
FFDB
FFDD
FF97
FFB5
FFB4
FFF2
FFF5
FF6B
FFB3
FF62
FFBA
0008
FFCF
FFEF
FFFB
FFE9
FFE7
FFBF
FFEE
FFEC
FFF5
FFF9
FFDA
FFED
FFED
FFF6
FFE2
FFED
FFED
FFFA
FFF3
FFE6
FFF3
FFFE
FFF4
FFF4
FFE6
FFFD
FFC8
FFBE
FFB3
FFAC
FFAE
FFC7
FFF4
FFE1
FFD2
002F
FFE1
FFE2
FFDF
FFF8
FFD8
FFBA
FFF7
FFEE
FFF6
FF99
FF86
FFEB
FFE7
FFF7
FF34
FF36
FFB5
FFCF
0009
FF62
FFF4
FF85
FFFB
FFEA
FF37
FFA6
FFDD
FFEF
FFEE
FF93
FFCB
FFF9
FFF5
FFFB
FF82
FF69
FFF2
FFFD
FFF9
FF7B
FFC8
FFD3
FF9D
FF9D
FFA3
FF66
FF8F
FF56
FF84
FF65
FF90
FF42
FF4F
FF85
FFB7
FF4A
FF5F
FF7D
FF96
FF7D
FF45
FF65
FF7C
FF24
FF75
FFA0
0052
000C
FFE5
FFB6
FFB7
FFF5
FFFE
FFF1
FF8A
FFF1
FFF6
FFEC
FFEF
FFBC
FFB5
FFE2
FFE9
FFF2
FFE4
FFCC
FFD2
000F
FFFE
FFE9
FFD8
FFF7
FFFB
FFF6
FFF6
FFFF
FFF4
FFF8
FFF4
0001
FFE0
FFDF
FFFA
0003
FFFB
FFED
FFF6
FFEC
FFFA
0009
0003
0003
FFF0
FFEC
FFC1
FF89
FFD7
FFFB
FFE4
FFE8
FF9E
FFD4
FFF5
FFC6
FF87
FF76
FFEA
FFF4
FFB3
FF9C
FF92
FFFC
FFEA
FFEE
FF81
FF97
0005
FFF3
0004
FFF2
FF58
FFF8
FFFA
FFD9
FFEC
FFE5
FFFA
FFF6
FFFB
FFE4
FFE4
FFFC
FFF7
FFF2
FF2B
FFCF
FFE0
FFDC
FFC7
FF6E
FFE9
FFE2
FFDE
FF86
0033
FFA0
FFF4
FFE1
FFEC
FFBB
FFE7
FFE7
FFE4
FFF8
FFF7
FFFA
FFEA
FFF5
FFEA
FFDA
FFEE
FFFF
FFF7
0001
FFE6
0003
000A
FFF0
FFEF
FFA2
FFA4
FFEE
FFEE
FFF9
000B
FFC2
0014
0002
FFFD
FFA6
0025
0011
0002
FFF7
FF97
FFD3
FFEA
FFEB
FFEB
FFAC
FF97
FFC2
FFE0
FFDE
FF6D
FFD8
FFE8
FFE8
FFD9
FFA2
FFAB
FFEC
FFAD
FFAD
FF9F
FFB6
FFAA
FFDB
FFED
FF63
FFB7
FFC6
FFDC
FFE1
FF6B
FFB8
FFB6
FFA2
FFB8
FFEA
FFBA
FFE1
FFF6
FFF3
FFC0
FFA8
FFE9
FFF9
FFE3
FFF2
FFF4
FFFC
FFF6
FFEA
FFFE
FFEE
FFEE
FFEE
FFE6
FFF7
FFC9
FFF2
FF7D
FFEE
0054
000D
FFDE
FFF7
FFDF
FFEF
FFE5
FFE0
FFF2
FFEF
FFE5
FFF5
FFFA
FFEE
FFF3
0001
FFFA
FFFD
FFF2
FFF4
FFF3
FFEE
FFF6
FFF5
0002
0002
FFC0
FFA9
FFEA
FFF3
006D
FFB0
FF9F
FFDC
FFEC
0000
FFA5
FFEE
FFED
FFF5
0004
FFE7
FFF9
FFF9
0000
FF8D
FFC0
FFA6
FFFA
0005
FF86
FFEF
FFE4
FFDB
0007
FF9D
003E
FFE2
000E
0002
FF60
FFBD
0037
0000
FFF3
FFCF
FFB3
FFF4
FFD6
FFA6
FFB6
FFF2
FF3E
FFF1
0019
FFD7
FFE2
FFD8
001E
FFD4
FF49
FFC0
0000
FFFB
FFE5
FF5F
FF9F
FFF4
000F
FFCA
FFB8
FFE2
FFCE
0037
FFB7
0095
003C
FFAF
0004
FFA4
FFE3
FFE0
FFF6
FFE7
FFE0
FFFA
FFE4
FFF0
FFF6
FFED
FFEB
FFEC
FFEB
0001
FFE7
FFE4
FFF8
0001
FFE7
FFE5
FFF5
FFEC
FFF8
FFF6
FFE2
FFAF
FF99
FFE8
FFF3
FFEA
FFCF
FFDC
FFF7
FFEB
FFF4
FFE6
FFF8
FFFB
FFF8
FFEA
FFAB
0008
FFE8
FFDC
FFE2
0002
FFAC
FFDF
FFE7
FFE6
FF9E
FFF6
FF6B
FFE8
FFE7
0005
FFF5
0001
FFFD
FFF8
FFDA
FFEE
FFF1
FFF7
FFEA
FFE3
FFDA
FF9F
FFC5
FFC9
FFF5
FFF1
FFF2
0019
000A
FFB9
FF8A
FF72
FFF8
FFEC
FFDF
FFCA
FFBB
FFE1
FFED
FFBF
FFE7
FFD8
FFF2
FFE1
FFE8
FF99
FF7B
FFF2
FFDA
FF93
FF47
FF93
FFDF
FFD2
FFCA
FFB7
FF8A
FF70
0004
FF9A
FFCF
FFB5
FF9E
0019
FFA6
FFA1
FFC3
FFF5
FFD1
FF8C
FFEC
FFDC
FFB7
FF73
0005
FFE0
FFB0
FFC2
FFBC
FFEF
FFE5
FFF9
FFF2
0003
FFE4
FFF3
FFE8
FFE8
0012
FFE4
FFE9
FFF0
FFFC
FFF7
FFF3
FFEB
FFF1
FFED
FFFF
FFFA
FFEF
FFC7
FFFF
FFFE
FFC5
FFDC
FF9F
FFAB
FFDB
FFF3
FFE8
FFD6
FFBE
FFA4
FFCE
FFE4
FFE1
FFC8
FFB3
FFDE
FFBF
FFDD
FFD1
FF86
0014
FFDC
FFD1
FFA9
FF3F
FFC4
FFDD
FFD0
FFB4
0024
FFF1
FFF4
0000
FFEA
FFC6
FF81
FF7E
FFB7
FFB8
FFDD
FF7B
FFBF
0000
FFED
FFDD
FFEA
FFBB
000B
FFEC
FFB2
FFE3
FFFD
FFE4
FFEB
FFDB
FFED
FFF8
FFE9
FFF5
0051
FFE8
FFD4
FFE6
FFDD
FFE9
FFB7
FFA0
0015
0003
FFBF
FFE9
FF97
FF8F
FFC8
FFC2
0008
FFF1
FFF4
FF90
FFEA
0028
FFE3
FFE5
0009
FFFF
FFC9
FFC3
FFFB
FFEB
FFE7
FF80
FF89
FF8E
FF98
FFC9
FF8E
FFC6
FFC5
FFD6
FFE3
FFA8
FFF9
FFF3
FFF1
FFB1
FFDD
FFE5
FFD5
FFDB
FF90
FFF2
FFCD
FFC0
FFA1
FF2E
FF9C
FFA9
FFE6
FF72
FF8C
FF8B
FFCA
FFC8
FFA5
FFC1
FFDF
FFE4
0005
FFCC
FFE2
FFED
FFE5
FFD0
FF83
FFED
FFE3
FFD2
FF71
FFCA
0041
FFA9
FFF8
FFE1
FFD5
FF73
FFC1
FF9A
FF9C
FFF1
FFA3
FFD8
FFD8
FFD5
FFDA
FFEA
FFFD
FFE9
FFE4
FFE1
FFFD
FFE5
FFEE
FFEE
FFF7
FFEF
FFC9
FFE9
FFEE
FFF4
FFF6
FF93
FF98
FF9B
FFC1
FFC6
FFCC
FFD1
FFEA
FFE0
FFDB
FFD3
FFC6
FFE5
FFD5
002D
FFF4
FFF7
FFEF
FFD9
FFFF
FFCF
FFDE
FFDE
FFFB
0002
FFB8
FFEF
FFF0
FFF6
FFF9
FFF3
FFB7
000C
FFFD
FFB1
FFB4
FFD1
FF95
FFB8
FFCA
FF70
FFCC
FF73
FF97
FFB2
FF9D
FF89
FF86
FFF4
FFD7
0014
0003
FFE6
FFBD
FF7B
FFEF
FFEF
FF9B
FF18
0053
FFF1
FFD6
FFA9
FF9E
0022
FFFB
FFAD
FF9A
000D
001F
000E
0032
001D
FFB7
FF8D
0049
003A
0037
FF8D
FF96
FFF2
FFE1
FFE0
FFC8
FFDF
FFF5
FFF6
FFCD
FFD4
FFEB
FFE7
FFE4
FFE4
FFEE
FFE6
FFF4
0006
FFBA
FFE9
FFDA
FFDA
FFF6
FFE1
FFE6
FFF7
FFE4
FFEB
FFA3
FFAD
FFF9
FFE6
0007
001C
FFC2
FFEB
FFB4
FFAA
FFCD
FFA0
FF5D
FF94
FFB5
FFE5
FFB4
FFA9
0013
FFF0
FFA4
FF85
FFA3
FFDC
FFEF
0001
FFB3
FFF7
FFEC
FFD5
002F
FF8D
FFEF
FF7A
FF7B
FF95
FF67
FFBC
FFA6
FFC3
FFC5
FFB2
FFB8
FFE7
FFC2
FFB2
FFA2
FF88
FFA8
FF93
FF9E
FFC3
FFCE
FFC8
FFAC
FFB7
FFC2
FFD7
FFA4
FFCB
FFB8
FF7A
FF6E
FFB5
FFB2
FF8E
FF89
FF7D
FF52
FF8C
FF88
FF5B
FF83
FFE5
FFF1
FFF6
0004
0018
0016
FFEB
FFEC
FFE6
FFEB
FFF5
FFFE
FFFD
FFE6
FFE9
FFEC
FFFA
FFFD
FFFC
FFEB
FFF4
FFF5
0003
FFDD
FFF3
FFED
FFFE
FFF4
FFFB
FFEE
FFFB
FFEF
FFFD
FFF4
FFF7
FFE8
FFE8
FFE6
FFE7
FFFC
FFF1
FFFA
FFF7
FFEB
FFE6
FFF1
FFF1
FFE5
FFFC
FFEF
FFDB
FFEA
FFEF
FFE7
FFE4
FFCF
FFEB
FFFA
FFF6
FFE9
FFEF
0002
FFF6
FFF5
FFEF
FFF7
0009
FFE9
FFF1
0017
0007
FFED
FFE6
FFED
001D
FFD3
FFF2
FFE9
FFED
0011
FFE8
FFE8
FFE8
FFE6
FFF7
FFE5
0012
FFF5
FFF2
FFFA
0000
FFE6
FFF8
FFFC
FFF5
FFCE
FFFD
FFF9
0006
FFF7
FFEF
FFF2
FFF7
FFEB
FFFC
FFF9
FFE5
FFF9
FFF9
FFF2
FFEE
FFF4
FFF7
FFF3
FFF7
FFEB
FFF8
FFFB
FFE9
FFFB
FFE9
FFE8
FFE6
FFF0
FFFB
FFEE
FFF7
FFF5
FFFA
FFF0
FFF3
FFEB
FFF6
FFFD
FFF4
FFCF
FFFB
FFFB
FFFB
FFF7
FFCF
FFED
FFF9
FFFB
FFF4
FF92
FFEF
FFE5
FFF6
FFF0
FFF6
FFED
FFEA
FFF4
FFFA
FFF1
FFFB
FFEE
FFF0
000F
FFE1
FFE9
FFEA
FFFB
FFE9
FFFD
FFEE
FFED
FFFD
FFFD
FFF7
FFE7
FFE5
FFF1
FFF2
FFE5
FFE4
FFEF
FFFD
FFF7
FFE5
FFFC
FFE5
FFF0
FFF4
FFEA
FFE6
FFF4
FFF4
FFE7
FFE9
FFFD
FFFC
FFF1
FFEA
FFF7
FFF3
FFEB
FFEF
FFF6
FFEB
FFEB
FFFE
FFF2
FFE6
FFF4
FFEB
FFF5
FFE5
FFFB
FFF8
FFF6
FFED
FFE5
FFF6
FFEF
FFFD
FFF6
FFEF
FFED
FFDF
FFFD
FFF9
FFF8
FFF7
FFF0
FFF0
FFED
FFEC
FFE6
FFF2
FFFC
FFF6
FFE5
FFEA
FFF6
FFFC
FFE9
FFFD
FFFB
FFE5
FFFA
FFF7
FFFE
FFEE
0000
FFFB
FFFA
FFED
FFFA
FFE8
FFDB
FFF3
FFF3
FFE5
FFB7
FFED
0008
000F
0029
FF9F
0015
0015
FFF1
FFEA
FFD6
FF9F
FFEC
FFF5
FFEA
FF9E
FFA8
FFD5
0003
FFFD
FFED
000C
FFEF
FFED
0010
0003
0017
001B
0011
0012
000E
FFFD
FFEC
FFF7
FFF2
FFE0
0002
FFEC
FFF2
FFF7
FFE5
FFE7
FFF6
000B
FFF2
FFF5
FFFA
FFFD
FFFB
FFF1
FFEE
FFEC
FFFE
FFFB
FFF3
FFEC
FFF1
FFF6
FFF3
FFFC
FFFD
FFEB
FFEE
FFEC
FFEC
FFF5
FFF6
FFED
FFF8
FFFC
FFF8
FFFC
FFE7
FFFB
FFF3
FFF5
FFF7
FFEE
FFFE
FFFD
FFE8
FFEF
FFE3
FFED
FFEB
FFE9
FFE5
FFFD
FFF9
FFF9
FFBD
FFFC
FFEB
FFE6
FFF9
FFE6
FFF3
FFFC
FFF6
FFFB
FFEF
FFE6
FFF4
FFF8
FFFD
FFEB
FFFA
0002
FFE8
FFE8
FFEA
FFE8
FFFB
FFEA
FFF5
FFF8
FFF3
FFF1
FFF4
0007
FFF3
FFFF
FFE9
FFE8
FFE6
FFFB
FFF1
FFF9
FFF6
FFE4
FFF5
FFE3
FFF2
FFEC
FFFA
FFEE
FFF8
FFFD
FFF8
FFE5
FFE7
FFEC
FFE8
FFE4
FFF7
0031
FFD9
0012
0045
008C
FF70
FFAF
0039
FFDD
FFF0
0062
004D
FFAE
002A
0071
00BF
FF70
FED6
FF04
009A
00E2
0020
FFCE
FF8C
003A
001A
FFDD
FFB3
FFC5
FFC4
FFCD
FFE8
FFCF
FFE0
FFF6
0040
FFF0
FFD8
FFC8
0034
FFD2
FFEC
FFDF
FF97
FFDA
001E
004E
FFF4
FFA5
FFE3
0009
FFBC
0048
FF28
FF51
006C
0011
00B0
0012
0037
000B
FF51
FEC0
FF2D
0063
FEA2
FF34
FE79
FD3C
FFAF
FE5F
FEB8
FF36
FF86
FEA1
001E
FFF1
001D
FFED
0078
FFA2
FF90
FF66
FFC1
FFF5
FFC4
FEE6
FED7
FFF3
FF6D
FFCA
001C
FFF7
FFFD
FF53
FF99
0095
0087
0025
FFB7
FF89
001F
007E
FFBC
0053
FFCC
FFBD
FFEF
0046
FF00
FF84
FFA7
0077
001A
FF90
FE92
002F
00C2
FF46
FF83
FFE5
0043
0075
0003
FF7E
FFEB
FFDA
FFCF
00A1
FF75
FF06
00CB
FFCD
FF82
FFC3
FF26
FF83
FEE2
FF69
0030
008B
FFD0
FFB7
FF6E
FF43
001D
FFAE
0062
0062
003B
FFFB
FFF3
FFF9
0062
006C
FFB9
FEFF
FFB5
0018
004F
FF27
FE34
FF04
004C
0052
FF65
FF5D
FE93
FF62
FFF2
FF8D
004C
0043
FF03
FFA6
FFEE
FED0
0081
FFCC
006D
0007
0097
00CD
00DE
00DD
006F
FFAB
FFF4
0025
FFA6
FFA4
FF97
FF1B
FF5B
FFE6
000B
FFE7
FF6E
000F
FFE8
0087
FF68
0068
0096
0019
FFE9
FFF3
FFE5
005F
0028
FF33
0117
FFE8
FF42
FFA1
FF96
FF76
FF1F
FF9A
FFB4
003F
009E
0006
FFB4
FECD
0057
000F
0010
0029
FF09
0011
FFD9
FFEB
FFA2
FF12
FF83
FFBA
0001
003B
FFA5
FE26
FF7F
FF1E
FFAE
FFB9
FF43
FFD9
FEBE
FF59
FF10
FF56
006F
FFAC
FEFF
FF84
FF29
FFEB
008C
FF98
FFDB
FFA9
005B
00AF
FF8F
FEFC
0053
00B0
007A
0004
FFCB
FFF5
FFC0
00A9
007C
0032
FF8E
0043
FFB8
0022
FF6B
FF78
FFF5
0163
FF90
001F
0027
0071
002F
006F
0090
FFFB
FF7A
FF42
FF75
0084
001D
0004
FF9A
FF9A
FED6
FFCB
FF1C
FFA8
FFC2
FF9C
FFDD
0008
FFCD
FFBE
FF86
FFAD
FF78
FFAE
001B
003B
003D
FFEA
FF8C
000C
FFE5
FFB0
FF76
FF8C
0008
FFCC
FF9E
FFE7
0062
0000
FF9D
FFCB
FFF0
FFC9
FF94
FFF1
0064
0045
FFB5
FF7D
0000
006A
FFDF
005B
00BA
0058
0043
FF91
FFCC
004F
0041
FF68
FF8E
0060
FF50
0019
000D
FE30
FF23
001B
0069
FF3F
FFC0
FE27
FE6A
FE41
0068
0044
0014
FF50
FFCC
000E
0099
00F6
0066
00A8
0031
0048
0038
0013
FF3C
006E
0051
0048
0004
FF68
0005
002C
FFBD
FFAA
005C
FFF5
FE5F
FEB4
0055
004D
0062
0028
FF49
FE30
FE4B
FFEC
FFF7
FFF4
FFFB
FFF6
FFE6
FFFA
FFEE
FFE8
FFEF
FFEA
FFF9
FFEB
FFED
FFFC
FFFB
FFF1
FFF1
FFEC
FFFF
FFEC
0000
FFF2
FFE6
FFED
FFF3
FFFA
FFF1
FFFB
FFF6
FFF2
FFEA
FFF6
FFEA
FFFE
FFEC
FFF8
FFF8
FFEC
FFEC
FFE9
FFFB
FFED
FFF6
FFF0
FFE3
FFF8
FFE5
FFFB
FFF8
0001
FFFF
FFEF
FFE9
FFF6
FFFC
0001
FFFC
FFF0
FFFD
FFF9
FFEB
FFF1
FFF3
FFEE
FFEF
FFFB
FFEE
FFF8
FFFD
FFED
FFF0
FFEA
FFF4
FFEC
FFEF
FFE7
FFF4
FFFF
0001
FFF0
FFEE
FFF8
FFF6
FFEE
FFF5
FFE3
FFF6
FFE9
FFFD
FFF4
FFEF
FFE8
FFFB
FFE6
FFEA
0000
FFF3
FFEE
FFE4
FFEE
FFF8
FFEA
FFEC
FFF4
0000
FFEE
FFFE
FFFA
FFFF
FFEA
FFF5
FFF1
FFF1
FFF4
FFEA
FFED
FFFC
FFF2
FFF8
FFEB
FFF6
FFEE
0000
FFF7
FFFA
0000
FFF9
0001
FFF0
0000
FFE8
FFE5
FFF0
FFEE
FFFA
FFF9
FFF2
FFED
FFFC
FFE9
FFEC
FFF6
FFF2
FFFF
FFF3
FFF8
FFED
FFFC
0005
FFED
0000
FFED
FFEB
FFE4
0000
FFEB
FFE3
FFFD
FFFC
FFF3
FFF0
FFE6
FFF5
FFF7
FFFC
FFF6
FFEA
FFF1
FFFC
FFFB
FFF1
FFF4
FFF5
FFFD
FFF5
FFF4
FFE9
0000
FFE9
FFFA
FFED
FFEF
FFF2
FFF8
FFFC
FFEE
FFED
FFF1
FFF2
FFEA
FFEE
FFFA
FFEF
FFFE
FFFD
FFF5
FFF0
FFF0
FFE9
FFF1
FFF6
FFF4
FFED
FFF4
FFF1
FFFA
0000
FFF0
FFEF
0001
FFF2
FFF5
FFF8
FFF8
FFF4
FFF8
FFF2
FFED
FFF5
FFF2
FFF0
FFEE
FFF9
FFFC
FFF5
FFF4
FFEE
FFF9
FFFD
FFEA
FFFD
FFFC
FFE6
FFF4
FFEC
FFFB
FFF0
FFEF
FFEA
FFF2
FFEA
FFF8
0001
FFF8
FFEF
FFF9
FFF5
FFF4
FFFF
FFE4
FFF2
FFF8
FFF8
FFF9
FFE4
FFF2
FFED
FFF5
FFF5
FFEE
FFF8
FFE7
FFE9
FFFA
FFED
FFFA
FFFC
FFF0
FFF6
FFEF
FFE7
FFF5
FFF3
FFF6
FFFB
FFF5
FFF9
FFF4
0001
FFE6
FFE8
FFE5
FFFB
FFF4
FFEF
FFF7
FFE7
FFF9
FFE6
FFF5
FFF8
FFFF
0000
FFEA
FFFA
FFF3
0001
FFFB
FFE5
FFFF
FFF9
FFF4
FFFE
0000
FFF8
FFE6
FFE9
0000
FFFF
FFF8
FFE7
FFE8
FFF9
FFF1
FFE7
FFEE
FFF5
FFFF
FFF5
FFFA
FFF8
0000
FFFD
FFF1
FFF0
FFEF
FFEC
FFF1
FFF5
FFF9
FFEC
FFEE
FFFB
FFFE
FFFA
FFF1
FFF0
FFF3
FFFA
FFEE
FFFE
FFF9
FFE7
FFF0
FFEA
FFF9
FFF7
FFF2
FFF6
FFEF
FFF8
FFF6
FFF6
FFF0
FFF7
FFEE
FFF8
FFFC
FFFD
FFFB
FFFA
FFF5
FFED
FFFF
FFE9
FFF3
FFFA
FFFF
FFFC
FFF2
0001
FFEB
FFFE
FFF1
FFF3
FFF7
FFFC
FFF8
FFE3
FFE9
FFEC
FFE4
FFF1
FFE8
FFFA
FFFC
FFF9
FFF1
FFE9
FFED
FFE4
FFEC
FFF7
FFFA
FFFC
FFE9
FFF0
FFF6
FFE4
FFB1
FF8C
FF8D
FFF6
FF8D
001D
FFF5
FFAE
FF8C
FF8B
FF7D
FFC0
FFC4
FF89
FFDC
0056
FFA9
FF8C
FFC3
FFB1
FF3C
0005
004A
0013
FFDA
FFE5
FFE8
FFF9
FFF1
FFE1
FFF6
FFF1
FFF9
FFE5
FFE5
FFF6
FFF0
FFFB
FFF4
FFEF
FFF6
0008
FFEB
FFFA
FFF2
FFF2
FFF2
FFFB
FFEB
FFF0
FFD8
FFC1
FF92
FFAA
FFAC
FFA8
FFBD
FF7A
FFA5
FF99
FFE8
FF96
FFEA
FFDB
0028
FFD2
FFC7
FFD4
002D
FF71
FFE2
0083
000B
FFDF
FF9D
FFC1
001F
FFD5
FFA0
FFE7
FFDE
FFE6
FFF5
FFCE
FF9F
FFD3
FFD1
FFD2
FFBE
FFA4
FFA0
FF5B
FFAB
FFB5
FFA7
FF58
FF33
FF1E
FF72
FF0B
FFD9
FFF5
FFF9
FFCB
FFF4
FFF0
FFFB
0000
0001
FFFD
0000
FFA3
FFCF
FFF7
FFEC
FF88
0040
FFF6
FFFC
FFF4
FFE9
FFAB
FFC3
FFED
FFF0
FFBC
FFD6
FFA7
FFA0
FFC0
FF8E
FFFF
FFB4
FF66
FF97
FF89
FF9B
FFBA
0033
001C
FF55
0056
FF9A
FFDD
FFE9
FF8A
FF49
FFE7
FFDE
001C
FF94
FF5C
FFEC
FF98
FFFD
FF6D
FF70
FF96
FF4A
FFFF
FFC2
FF7D
FFB0
FF9E
0016
0040
FFD9
FF81
FF68
FFF0
FF8E
FFAA
FF98
FF5F
0003
FFD1
0025
FFDD
FFD1
0008
0012
0005
FF84
FFBB
FF74
FFCF
0016
FFF5
FFF4
FFF9
0060
FFA4
FF55
FFA7
FFEA
0031
FF7C
FFB7
0014
FFFE
FFE1
FFE5
FFD5
FFCE
FFDB
FFD5
FFF6
0032
FFF6
FFE6
FFEF
FFE2
FF9F
FFB2
FFF5
FFBB
FFD2
0056
FFEA
FFE0
FFD4
FF91
FF95
FFC7
FFFA
0012
0010
FFFA
FFF4
FFFD
FFF1
FFE5
FFE6
FFE1
FFD9
FFC3
FFAD
FFFD
FFE0
FFCD
FFEE
001D
FFC1
FFEC
FFF4
FFF5
0005
FFE7
0001
FFEB
FFD6
FFDB
0004
0047
FFE5
FFAE
FFCF
FF5A
FF96
FF63
FF77
FFC9
FFD6
FFD4
FFAF
FFC4
FFFE
0000
FF78
FF6F
0019
FFF5
FF95
FFD0
001B
FFC7
FF80
FFAB
FFBD
FFC7
FFB7
0085
FFA2
FFC5
FFA7
FFEF
FF4C
FFBE
FF8D
FFE5
FFBA
FFA7
FFBC
0017
FFE1
FF67
FF83
FFB1
FFCE
FF6E
FFED
FFE5
FFED
FFEF
FFE7
FFEE
FFE2
FFF5
FFF2
FFE7
FFFC
FFF7
FFEB
FFE4
FFF9
FFED
FFE5
FFF1
FFE6
FFEB
FFDF
FFED
FFF2
FFE7
FFE4
FFA3
FFE7
007F
FFCD
FF8B
FF93
FFF0
FF99
0028
0023
003D
FFE3
FFA7
FF98
FFAC
FFD9
0002
FFB0
FFC1
FFAC
000D
002B
FFFB
FF81
FFB5
FF80
0019
FFBE
FFA2
FF85
FF5D
FFB6
FFD1
FFD0
FFED
FFB7
0049
FFEF
FFD4
FFA4
FF96
FF99
FF74
FF7B
FF8F
FFD4
FFA7
FFB3
FFAE
FFA1
FF7E
FFF1
FFB0
FF8C
FF8F
FF71
FF9F
FF7B
FF6D
FF91
FF88
FFBB
FF96
FF7A
FF5A
FFBE
FFC3
FF75
FFB3
FFD6
FF50
FFDA
FFCE
FF86
FFC4
FFB7
FFC7
FFF4
FFF4
FFFE
FFF3
FFF9
FFFB
FFF3
FFFA
FFFF
FFF9
FFED
FFEA
FFEF
0000
FFEA
FFFA
FFEF
FFEA
FFD4
FFD8
FFE5
FFEC
FFF0
FFFB
0001
FFFD
FFE9
0000
FFF1
FFEB
FFE6
FFE8
FFEF
FFF6
FFF7
FFF9
FFF4
FFFC
FFFC
FFF5
0003
FFF1
FFE8
FFF7
FFFD
FFF0
FFFD
FFF9
FFEA
FFDB
FFCD
FFF7
FFEA
FFEF
FFF0
FFFD
FFF4
FFF4
0010
FFC9
FFFD
FFF4
FFFA
0001
0035
0000
FFF4
FFFE
001F
FFEC
FFE2
FFED
FFF2
FFB6
FFFE
FFEE
FFE5
FFF0
FFAF
FFE1
FFFA
FFE7
FFEC
FF7B
FFC9
FFE2
FFDC
0001
FF79
FFE4
0001
FFDA
FFE4
FF61
FFA1
FFC9
FFD1
001E
FFEB
0000
0000
FFF4
FFFD
FFED
FFF8
FFEF
FFED
FFEA
0004
FFF0
FFFA
FFF2
FFEB
FFF7
FFFD
FFF5
FFFC
FFE9
FFF6
0002
FFEC
FFED
FFF9
FFD9
FFFB
FFF5
FFFB
FFF5
FFE0
FFFF
FFEB
FFFF
FFF6
FFD6
FFEF
FFF9
FFF7
FFE8
FFA6
FFC1
FFE6
FFF8
0006
FF61
FFB1
FFCF
FFE9
0000
FFD7
FFE1
FFE7
FFFA
0003
FFDB
FFE7
FFE6
FFFD
FFF2
FFEA
FFF2
FFE5
FFEC
FFFD
FFDB
FFDE
FFED
FFEB
0003
FFE8
FFC8
FFE1
FFF5
FFDA
0008
FFE4
FFF8
0000
FFEE
0006
FFF6
0000
FFEE
FFFB
FFF3
FFEE
FFFC
FFF2
0000
FFF7
FFFE
FFF3
FFE2
FFED
FFF2
FFE2
FFF4
FFE9
FFE5
FFFD
0000
FFFC
FFF4
FFF5
FFF1
FFF7
FFEF
0001
FFE9
FFEE
FFF4
FFEB
FFFA
FFF1
FFF3
FFF2
FFF7
FFFA
FFEA
0000
0000
FFED
FFF7
FFEF
FFEC
FFF6
FFF0
FFF6
FFEE
FFE6
FFEC
FFF4
FFF3
FFF0
FFD1
FFEA
FFFE
FFF8
FFF6
FFE2
FFFE
FFFE
FFFC
FFF4
FFE8
FFF8
FFF4
FFEC
FFF6
FF9F
FF87
FFE6
0000
FFE8
FF91
FF43
FFCD
FFD1
FFE2
FFE5
FFF0
FFA8
FFED
FFF7
FF81
FF98
FFB9
0000
FFC8
FFBB
FF98
FFB7
FFE5
FFA2
FF39
FFBB
FFFA
FFFE
FFE4
FF2E
FFD2
FFE5
FFF7
FFE6
FFC4
FFE0
FFD5
FFD1
FFDE
FFF0
FFF1
FFAC
FFF5
FFC4
FFD3
0007
000A
0024
FFBA
FFF3
0002
FFEB
FFE9
FFEF
FFE4
FFE9
FFF6
FFF0
FFFB
FFF0
FFF9
FFF3
FFF4
FFE9
FFE6
FFF1
FFE9
FFEA
FFFE
FFF1
FFEE
FFF2
FFFA
FFEC
FFE0
FFFA
FFED
FFF8
FFEF
FFEB
FFEE
FFF4
FFE9
FFF5
FFD9
FFF6
FFF7
FFF6
FFF3
FFD0
FFFE
FFE6
FFEE
FFEE
FFF2
FFEA
FFF0
FFF8
FFDA
FFF6
FFF3
FFFB
FFFC
FFF4
FFEA
FFE4
FFEF
FFF9
FFE7
FFE8
FFF9
FFFE
FFEE
FFF7
FFE8
FFF0
FFF6
FFF4
FFE7
FFD6
FFE8
FFDD
FFCC
FFE9
FFCB
FFDD
FFF2
FFEC
FFED
FFE7
0004
FFF9
FFED
FFFE
FFDD
FFFC
FFEB
FFED
FFFB
FFE0
FFE7
FFEE
FFF3
FFF8
FF9E
FFBF
FFE1
FFF3
FFFD
FFC9
FFA9
FFAB
FFC7
FFC5
FFB6
FFAE
FFC7
FFA4
FFA0
FFB0
FFC5
FFC4
FFBD
FFE1
FFA3
FFAB
FFAB
FFC0
FFD8
FFA5
FFD2
FFD2
FFBF
FFBB
FFF4
FFF7
FFD3
FFDD
FFF8
FFFA
FFEE
FFE4
FFED
FFF6
FFE4
FFF4
FFEA
FFF3
FFE5
FFE3
FFEE
FFD9
FFF5
FFD4
FFE9
FFEA
FFF1
FFF0
FFE6
0011
000E
FFBB
FFB6
FFB3
FFE1
FFD0
FFBF
FFB4
FFE3
FFF7
FFCE
FFCC
FFBA
FFD3
FFDB
FFD6
FFAA
FFBE
FFE5
FFD8
FFA5
FFA9
FFD1
FFD8
FFEF
0005
0022
0018
002F
FFA4
FFD9
FFCE
FFD2
001B
FFC1
FF99
FFDC
FFB1
FFE0
FFE3
FF85
FFCE
FFAF
FFBB
FFFE
0000
FFB9
FFBA
FFCA
FFAF
FFB4
FFB8
FFBE
FFDD
FFCD
FFB7
FFC6
FFB9
FFDE
FFCB
FFBC
FFCC
FFA8
FFC6
FFCA
FFD6
FFCB
FFAD
FFB8
FFD5
FFBF
FFAD
FFBB
FFBA
FFDC
0002
FFCD
FFF2
FFE5
0002
FFC8
FFC4
FFC9
FFD4
FFCE
FFEF
FFD8
FFC0
FFCB
FFF2
FFDC
FFE1
FFEE
FFEB
FFAC
FFFF
FFF5
FFDE
FFE0
0015
FFC7
FFB6
FFD1
FFC1
FFD8
FF9D
FFE9
FFEB
FFC3
FF97
FF9F
FFF2
FFD4
FFCC
FF8B
FFC6
0000
FFF1
FFC6
FFBE
FFD3
FFEA
FFC2
FFAB
FFED
FFB6
FFCD
FFCF
FFA8
FFB7
FFB1
FFB5
FFBA
FFAE
FFBE
FFAB
FFB1
FFA3
FFF7
FF9D
FFB6
FF99
0018
FFE1
FFAA
FFC2
FFB5
FFE5
FFD6
FFA8
FFB2
FFCB
FFCB
FFFD
FFC5
FFF0
FFBD
FFBB
FFD0
FFBB
FFD3
FFC5
FFBF
FFBD
FFE3
FFEB
FFF4
FFF2
FFD5
FFE3
FFDC
FFD2
FFE0
FFD0
FFCD
FFB9
FFCC
FFDC
FFE2
FFAA
FFC9
FFD6
FFBB
FFE6
FFD9
FFB8
FFBB
FFB1
FFC4
FFD5
FFD2
FFCD
FFCB
FFB6
FFDE
FFD6
FFD8
FFBE
FFAB
FF90
FF99
FFAE
FFA6
FFC1
FFB5
FFA7
FFA1
FF95
FFA4
FF99
FFAD
FFB5
FFDF
FFCA
FFC1
FFC3
FFB7
FFA5
FFBE
FFD8
FFCA
FFAD
FFB5
FFC8
FFCD
001A
FFD9
FFE2
FFDF
FFDC
FFAB
FFD6
FF9A
FFC2
FFE2
FF93
FFEF
FF9C
FFB3
FFDD
FFCA
FFDA
FF99
FFD0
FFDC
FFDF
FFB0
FF8D
FFD3
FFC6
FFC3
FFD2
FFD2
FFEE
FFD1
FFC5
FFD5
FFC3
FFD4
FFC9
FFCF
FFC5
FFB2
FFDA
FFDE
FFAE
FFB7
FFB2
FFED
FFBA
FFA4
FFD7
FFC3
FFCD
FFA0
FFA8
FFA7
FF99
FFD1
FFA8
FFB9
FFBB
FFA3
FFA3
FFB3
FFB5
FFC1
FFB6
FFAB
FFA2
FFB9
FFB2
FFC1
FFDC
FFB7
FFAE
FF9A
FF9D
FFBB
FFF2
FFD4
FFDB
FFEA
FFE5
FFCD
FFC1
FFBC
FFCC
FFC6
FFC5
FFCF
FFB2
FFB9
FFC6
FFB7
FFDA
FFAF
FFBB
FFC0
FFD7
0003
FFA6
FFC8
FFD4
FFA3
FFB1
FFB7
FF99
FFA2
FFBC
FFA9
FFC0
FFC3
FFC0
FFA3
FFA1
FFBB
FFB9
FFC8
FFBA
FFAE
FFAE
FFB9
FFB1
FFBA
FFAB
FFA9
FFB6
FFBD
FFC3
FFC2
FF8A
FF96
FFF9
FFCF
FF5B
FF5E
FF83
FF9B
FF83
FF76
FFD2
FFD5
FFDB
FFB3
FFA7
FFBB
FFB4
FF9E
FF9C
FFC8
FFE5
FF7C
FFAC
FFEB
FFEA
FFFA
FFF6
FFF3
FFE6
FFE5
FFEE
FFEA
FFE6
FFF0
FFFC
FFF9
FFF0
FFF5
FFE6
FFF2
FFE7
FFEB
FFFA
FFF4
FFE8
FFF1
FFF3
FFFB
FF71
FFFD
001A
FFBD
FF9B
FF8D
FF8B
FFC6
FFC2
FFBD
FFDA
FFCE
FFEB
FFB6
FFC2
FFDE
FFEF
FFE6
FFD3
FFA9
FFAF
FFF4
FFEF
FFB2
FFAC
FFC1
0046
0013
FFC7
FFC5
FF9E
FFF1
FFFC
FFE0
0038
FF94
FFE5
FFB5
FFD7
FFF4
FFDE
FFE6
FFE4
FF8E
FFEC
FFDF
FFD8
FFF6
FFE1
FFF1
FFCE
0000
002E
0003
0037
FF76
0069
0015
FFE1
003E
FF84
FF83
FFEC
FFB4
FFCC
0023
FFD8
FF92
FFEC
FFE3
0002
FFDC
0017
0010
0028
FFCC
FF7F
FFF7
0021
FF8F
FFAF
FF73
FFCF
0009
FFCE
FF8E
FF97
FFBF
FFC7
FFB8
FFA6
FFAC
FFB2
FFC6
FF99
FFB1
FFAD
FFC3
FFA3
FFAA
FFD9
FFEF
FFB2
FF52
FFAF
FFD6
FFC7
FF86
FF99
FF6E
FFE8
FFE9
FFAE
FFCE
FFC9
FFFF
FFCE
FF8C
FFCA
FFB3
0009
FFD3
FF97
FFC2
FF86
FFD0
FFD3
FF5F
FFB8
FFCE
FFB7
FF96
FF67
FFD4
FFBD
FFAA
FFAA
FFEA
FF70
FFBE
FFB4
FF93
FFA6
FF67
FFB9
FF9A
FFA8
FFF7
FFA9
FF69
0026
FFEC
FFB3
FF91
FF86
FF59
FF69
FF9C
FFE0
FFC2
FF78
FF85
FF6C
FF9E
FFDE
FF81
FF90
FFB7
FFE7
FF8F
FFAE
FF89
FFA4
FFA3
FFAD
FF87
FF9F
FFC0
FF9B
FFA7
FFC1
FF7A
FF83
FFAF
FF8C
FF8D
FF59
FF75
FFAF
FFBE
FF95
FFC7
FFBB
FF9D
FFA9
FFCD
FFA0
FFB5
FFAA
FF95
FF7F
FF4C
FFCF
0046
0068
FF4D
FF76
FF6B
FF4E
FFA8
FFE0
FFCF
FF49
FF97
FF9D
FFF7
FF9F
FFAE
FFD2
FFE5
FF80
FF8A
FFB8
FFA3
FFF1
FFA9
0030
0000
FF95
002F
FFCF
001A
FFEF
FF70
0025
FF71
0004
FFEB
FF62
0004
FFBB
001F
002D
FF6C
003A
FFC6
FFFB
0045
FF9B
0045
FFEC
FFF5
FFFF
FFEB
FFE4
FFEC
FFF5
FFF6
FFF9
FFEC
FFE6
FFFC
FFEA
FFE9
FFF2
FFF4
FFE7
FFE5
FFEF
FFE6
FFF7
FFF9
FFF4
FFF4
FFEF
FFC7
FFCE
FFFE
FFB5
FFDC
FFD4
FFDA
0007
FF73
FF9C
FF9F
FFEE
FFC6
FF95
FF85
FFE3
FFC4
FF96
FF98
FFB7
FFB1
FFB9
FFC5
0006
FFB7
FFBD
FFBD
FFDF
003B
0031
FF9F
FF9B
FF7B
FFAF
FFB4
FF9F
FFAC
FF89
FF8B
FF88
FFB3
FFB3
FFC2
FFBD
FFB7
FFB7
FF92
FFB0
FFE5
FFAC
FFD3
FFBB
FFB6
FFAF
FFB2
FFB9
FFDF
FFAB
FFBF
FFA6
FF8E
FFD5
FFCB
FFE4
FFBA
FFB0
FFB9
FFB9
FFBA
FFA8
FFDC
FFC4
FFAF
FFAC
FF9F
FFF9
FFEB
FFEB
FFF9
FFF8
FFEC
FFEE
FFF7
FFF9
FFFF
FFF8
FFF7
FFF1
FFEF
FFEE
FFF6
FFFB
FFFB
FFEB
FFF1
FFFC
FFF5
0002
FFFF
FFE9
FFEA
FFF7
FFFB
FFEE
FFEF
FFED
FFF8
FFFA
FFF4
FFEB
FFF3
FFEE
0001
FFE9
FFEE
FFFD
FFF5
FFEE
FFF0
FFF7
FFEE
FFEB
FFF9
FFFF
FFFF
FFEB
FFE9
0000
FFF0
FFF4
FFF6
FFEA
FFFD
FFEF
FFF8
FFF7
FFEC
FFF1
FFFC
FFE5
0000
FFFE
FFF0
FFEB
0002
0000
FFEA
FFF7
FFFF
0004
FFF3
FFED
FFED
FFE7
FFF5
FFEF
FFFC
FFED
FFF8
FFE5
FFEF
FFE3
FFEF
FFE7
FFF7
FFF6
0002
FFFD
FFF4
FFE2
FFFE
0005
FFFC
000B
FFF4
FFF2
FFEA
FFFE
FFE4
FFEA
FFFA
FFFD
FFEC
FFF5
FFFB
FFEB
0000
FFFC
0000
FFEC
FFF6
0000
0001
FFF5
FFF6
FFF5
0000
0003
FFEF
FFF8
FFF0
FFEF
FFEB
FFF0
FFF0
FFF4
FFF6
FFF6
FFFA
FFE4
FFED
FFEC
FFEE
FFEB
FFF6
FFFE
FFFB
FFFF
0002
FFE3
FFFB
0004
0004
FFED
FFF4
FFF2
FFF1
FFFC
FFEF
FFEF
FFEB
FFF1
FFF2
FFEA
FFF6
FFEB
FFF0
FFED
FFE9
FFEB
0001
FFEA
FFF5
FFF9
FFEB
FFFC
FFFE
FFEE
FFF4
FFF7
FFFD
FFF9
FFF8
FFE9
0000
FFF8
FFF8
FFFC
FFE9
FFF5
FFED
FFEE
FFE9
FFE8
FFF9
FFFA
FFED
FFFD
0000
FFFC
FFFD
FFFB
FFFC
FFFB
FFEA
FFE4
FFF8
FFFC
FFE4
FFE4
FFF8
FFF4
FFEB
FFFE
FFF3
FFE9
0000
FFF8
FFF5
0000
FFF4
FFF7
FFFE
FFF4
FFF6
FFFE
FFF7
0000
0000
FFFA
FFEB
FFEC
FFFA
FFF8
FFF6
FFEC
FFFB
FFFF
FFF9
FFE5
FFFF
FFF8
0000
FFF4
FFF3
FFED
FFF3
FFEC
FFFA
FFFA
0000
FFF6
FFFC
FFFA
FFF9
0002
FFF2
FFF9
FFEA
FFF0
0000
FFEE
FFF4
FFF9
FFF5
FFFE
0000
FFF6
FFF5
FFF0
FFF6
0000
0002
0007
FFF7
FFEF
FFF2
FFF7
FFFB
FFEE
FFF9
FFE8
FFF5
FFFA
FFF5
FFF0
FFE6
FFFD
FFEA
FFF4
FFEB
FFEE
FFF0
FFFC
FFF0
FFEE
FFEE
FFF6
FFF7
FFE9
FFFD
FFF5
FFFB
FFF9
FFF1
FFFB
0000
FFF9
FFEB
FFF5
FFFC
0000
FFE9
FFFD
0000
FFF0
FFEE
FFF1
FFED
FFEE
FFF6
FFF8
FFFB
FFF0
FFEE
FFF8
FFEF
FFEB
FFF8
FFED
0000
FFFB
FFEC
FFEB
FFF0
FFFA
FFF8
FFF3
FFFB
FFEC
FFF1
FFF0
FFED
0000
FFE7
FFEE
FFF5
FFFF
FFF3
FFF5
0000
FFF5
FFED
FFF9
FFFC
FFF6
FFFD
FFEB
FFF3
FFEE
FFF0
FFFE
FFF9
FFF5
FFFD
FFF5
FFFA
FFFF
FFFA
FFFE
FFF9
FFF8
FFF8
FFEF
0000
0001
0001
0001
FFF6
FFFA
FFF1
0000
FFF5
FFF9
FFF8
FFE2
FFFC
FFFE
FFF7
FFED
FFFF
FFEF
FFE9
FFE9
FFF2
FFE9
FFF5
FFFA
FFFD
FFF0
FFE9
FFF8
FFEF
0000
FFEC
000C
FFBB
0005
0009
0006
FFF9
FFC1
FFB3
0005
FFFD
000B
0045
0000
FFEF
FFE6
FFE4
FFE9
FFED
FFEF
FFFD
FFE4
FFE6
FFC7
000F
FFEB
FFEB
FFE8
FFE5
FFDF
FFF6
FFF0
FFEF
0006
FFED
FFE8
FFDF
FFF3
FFF3
FFE4
FFF3
0008
0010
FFF6
FFEA
FFFA
000E
FFE9
FFF7
FFFC
FFF1
0002
0004
FF8E
FFF5
0000
FFF3
FFE6
FFA9
0003
000A
FFC5
FFBC
FFB3
FFDE
FFF1
FFA8
FFC0
FFAD
FFF1
FFE7
FFBD
FF78
FFE8
FFEA
FFE9
FFF6
FFCF
0000
FFDF
FFF1
FFF0
FFC7
FFFE
FFF3
FFF3
FFFE
FFF7
FFE6
FFF7
FFE1
FFFF
FFE2
FFF4
FFF5
FFED
FFEC
FFED
FFF6
FFD9
FFD7
FFE0
FFE4
FFDC
FFDC
FFEA
FFE5
0000
FFDE
FFF3
FFE5
FFE0
FFF0
FFEE
FFFA
FFEF
FFEE
FFED
FFF6
FFE9
FFFE
FFF0
FFF6
FFE8
FFF3
FFF7
FFFF
FFFF
FFF5
0038
FFF8
FFDA
FFF7
FFF6
001B
000C
FF91
FFDC
FFEB
FFFC
0003
FFBF
FFD8
FFE7
FFEC
FFF1
FFE5
FFDC
FFF1
FFF2
FFE3
FFBE
FFD9
FFFB
FFE9
FFE8
0006
FFE2
0000
FFEC
FFFC
FFF8
FFF9
FFE5
FFF9
FFEF
FFEA
FFE6
FFE9
FFF2
000C
FF96
FFF1
FFF0
FFEC
FFE5
FFAE
FF78
FFEB
FFEC
FFF2
FF9E
FF7A
FFDC
FFF2
FFE9
FFE5
FFFE
FFFC
FFF9
FFE9
FFEB
FFEE
FFF5
FFDE
FFE3
FFE5
FFF0
FFEE
000C
FFF7
FFF4
FFE7
FFDF
FFE5
FFE9
FFE2
FFDC
FFEE
FFDD
FFE2
FFE8
FFED
FFDF
FFEC
FFF3
FFF0
FFF5
FFF6
FFEB
FFEE
FFDC
FFF5
FFED
FFF0
FFFA
FFF1
FFD6
0005
000F
FFF2
FFED
FFF9
0009
FFEA
FFEC
000A
000F
FFF8
FFEB
FFE8
0002
FFFF
FFD9
FFE7
FFFA
FFF0
0023
FFE2
FFF9
FFE8
FFBA
FFB4
FFBA
FFD2
0014
FF86
FFF8
FF99
FFA1
FFFA
FFF9
FFAC
FFF6
FFF5
FFE7
FFE3
0021
FF92
0012
000B
FFDE
FFFB
FF9C
FFF3
FFFA
FFEA
FFEB
FF96
0008
0019
000D
FFF7
FF97
0009
FFF7
FFE2
FF4E
000E
FFEE
FFF7
FF4F
FF7E
0004
FFF7
0019
FF6B
FFBF
FFDE
FFE8
000A
FFF3
FFE0
FFEA
FFF3
FFF0
FFEB
FFE6
FFE7
FFF0
FFFA
FFE0
FFE9
FFE9
FFF1
FFF1
FFE0
FFEA
FFED
FFE8
FFE2
FFDF
FFEE
FFF5
FFE5
FFEE
FFA3
FFB6
FF9C
FFF8
FFF1
FFAA
0001
FFA2
FFF6
FFED
0000
FFFB
FFF1
FFE8
FFF1
FFEE
FFEA
FFE6
FFEB
FFE5
FFED
FFE1
FFF3
FFE0
FFE3
FFAA
FFA5
FFE3
FFEF
FFED
FFB8
FF99
FFFB
FFD5
0009
FF8F
FFFD
FFFC
FF9A
FFF8
FFE3
FFF3
FFEB
FFAD
FFE3
FFEC
FFF3
FFD4
FFF7
FFD7
FFE8
FFD5
FFE3
FFB1
FFE6
FFD0
FFA6
FFA1
FF8A
FFE4
FFD9
FFD8
FF88
FFA0
FFED
FFD1
FFCE
FFCE
FF8F
FFF2
FF96
FFB0
FF79
FFE4
FFF3
FFEC
FF84
0000
004B
FF2E
FEF3
FFD9
0006
FEF3
FED1
FFF8
0066
0003
FFFE
FF2D
004A
FFCE
0003
FEB0
FE6C
00C7
0017
FF91
0045
006D
0022
FF94
FFA1
FFE3
FFEE
0055
FFF7
FFFC
FF8D
FF0A
FFCF
FFCA
FFE4
FFA4
FF89
FFE5
FFD7
FFC8
FFF2
FFE4
000D
0006
FFCF
FFF9
FF8C
002C
007C
009F
0095
FF91
0044
001F
FF86
FD91
FE8C
0012
FEE7
FE75
FFB6
FF98
FFAC
FF9A
004D
0026
FF19
FFE8
0059
0068
FF6D
FEBA
FF13
FEE7
FE51
FE7C
FECA
FF75
FECD
FF6A
FF47
FF58
003C
FFED
FFDF
FFE6
FFFB
0066
002C
FF6B
FF45
FE99
FF87
FF19
FECD
FEF2
FF54
FE3C
FF18
FF3B
00A6
0058
FED5
FF04
FF0C
0005
00A0
FFC8
FFC7
FF42
0049
FF96
0077
002A
FF15
FFC3
FF27
FFC3
00A6
000E
FF95
FEE4
FF55
FF02
FE87
FE02
FF02
FFDF
FFE9
FEA2
FE80
FED2
007E
0069
FF99
FFEA
FF71
00B5
005F
FF42
FF30
FF6D
FFF2
FF3B
FEE5
FEA9
FFBE
005D
FE79
FED5
FF62
FF08
FF2F
FE12
FE9E
FF1E
FF1E
FF68
FF85
FFEC
FF7D
FEC3
00C2
FFE1
001F
001D
FF3E
FFD1
FF24
FF45
FF20
FFB0
FF0E
FF91
FF47
0064
001D
FFE4
010B
FF41
000A
FF6C
0054
003A
FF77
FF25
FED6
006A
0068
005A
FF4A
FFA7
00C6
FEF6
FF6F
0028
0021
001B
FFD3
FF89
FFCC
FF6B
FF7B
FF6E
005C
006D
FEDA
FF70
0055
FFFF
0063
FF4B
00BE
00DF
FF07
FF34
005C
FF98
0055
00AD
FFA3
FFC3
FFE4
FFF6
0050
0024
0090
FF93
FEF5
007F
0050
FE54
FE8B
0042
007C
FFAA
FEBF
001D
FF95
003A
0010
FFDD
00F1
0101
0013
FF64
FF63
FF25
FE48
FEFA
FF01
FF64
FE8A
FFA8
0097
00B5
000A
0009
00B2
000A
FF63
FF7E
002F
0035
FF8F
FE79
FED7
FFB2
FFE6
FF6A
FE2F
FE27
0003
FE13
FE95
FFF3
FF9D
004D
FEE9
FFDB
FEE9
FFBA
005F
0030
FFBB
FF86
FF67
0073
0050
0042
00B1
FEE2
FFB2
0043
FED6
FF34
FE93
0088
0046
0005
FFFE
FFC8
001D
FFFB
FFC8
FFCA
FF6F
0047
00B4
006E
FFA7
FFA0
00A4
008A
FFCD
0035
FFAF
0032
0071
008A
0012
FF8E
FED0
FF2F
FF5C
FFEF
FF14
FF68
FFCB
008B
FFF9
FF94
FF7A
0095
0089
FFC2
FFFF
0023
FFBB
FF16
FF39
FF09
FF76
FF27
FF21
FEAD
FE9B
FF9E
FF23
FED4
FEB6
FEEF
0002
0056
FF84
FF82
FEA8
0061
0024
FF70
FF99
FFD6
00E4
FF73
FF2D
FEE1
FF71
0030
FFBE
FF1A
FF72
004C
FFEE
FF7A
004E
0033
FFD8
FF32
0053
003B
FF09
FF79
FEC0
FFAA
00BF
0007
FF4E
00A9
000A
FF95
FF6C
FF7A
00B2
008C
0015
FFB6
FFBB
FFE2
FFEE
FFEC
FFFA
FFF3
FFF7
FFFC
0000
FFEF
FFEF
FFFB
FFFE
FFF3
FFFC
0004
FFEE
FFF1
FFE5
FFEE
FFE9
FFF2
FFF0
FFED
0000
FFF6
FFF9
FFF3
FFFB
FFFB
FFF5
FFE8
FFEE
FFEB
FFF5
FFF0
FFEA
FFED
FFFA
FFF2
FFF1
FFEC
FFF3
FFEE
FFFD
0002
FFF8
FFF6
FFED
FFF1
FFF5
FFED
FFF6
FFE9
FFDF
FFEB
FFF5
0000
FFF2
FFF3
FFFA
FFFE
FFF5
0001
FFEB
FFF8
FFF8
FFF8
FFEA
FFF7
FFF3
FFF1
FFE5
FFFA
FFF4
FFEE
FFEF
FFF8
FFE4
FFF2
FFEE
0002
FFFD
FFE9
FFFA
FFDA
0006
FFF3
FFF4
FFFF
FFDA
FFFA
FFF9
0001
FFFD
FFF6
FFF2
FFFD
FFE2
FFE1
FFE4
FFF7
FFF1
FFE8
FFF3
FFF7
FFEF
FFFB
FFEB
FFF6
FFFB
FFEE
FFEE
FFFE
FFEF
FFF3
FFEB
FFF4
FFF8
FFEE
FFF4
FFE8
FFEE
FFF8
FFF7
FFEA
FFEA
FFF0
FFF4
FFF3
FFF9
FFF9
FFF5
FFF6
FFEC
FFEC
FFFF
FFFA
FFF6
0004
FFEE
FFED
FFF7
0000
FFEE
FFF9
FFE0
FFF4
FFF0
FFE8
FFF0
FFF6
FFF8
FFE4
FFE3
FFF9
FFE5
FFEF
FFE4
FFEF
FFE2
0000
FFF9
FFFC
FFEF
FFDB
FFF4
FFF9
FFEC
FFF0
FFFA
FFF0
FFFE
FFEA
FFF0
FFFB
FFEA
FFEB
FFFD
FFFA
FFF4
FFFF
FFF5
FFF3
FFFF
FFF2
FFF7
FFF0
FFFB
FFFB
FFF6
FFF5
FFF5
FFEC
FFF9
FFFF
FFF1
FFF3
FFEC
FFEB
FFF4
FFEF
FFED
FFE9
FFEC
FFED
FFEC
FFF3
FFFD
FFFC
0002
FFF0
FFEC
FFFD
FFEE
FFFA
FFF6
FFFA
FFEC
FFFC
FFF6
FFE8
FFF6
FFF0
FFE9
0000
FFF4
FFE9
FFF1
0000
FFFE
FFF0
FFF3
FFFF
FFF2
0000
FFEF
FFEA
FFEB
FFFE
FFFA
0001
FFFB
FFE9
FFF4
FFFB
FFE9
FFFC
FFF8
FFF2
0000
FFF7
FFEB
FFF7
FFE3
FFE2
FFFD
FFEF
FFF2
FFFC
FFED
FFE4
0000
FFF5
FFF6
FFEC
FFEF
FFF2
FFE2
FFE9
FFE9
FFEC
FFEA
FFF2
FFF1
FFF5
FFF8
FFEC
FFF2
FFEB
FFF3
0003
FFED
FFFA
0009
FFE9
FFFC
FFF9
FFF8
0010
0000
FFF6
FFED
FFEF
FFFA
FFE7
FFE8
0002
FFF2
FFF3
FFDF
FFF9
FFE8
FFED
FFE9
0001
FFF8
FFF3
FFEE
FFF0
FFFF
FFFF
FFFE
FFEF
FFFE
FFF0
FFED
FFF9
FFFE
FFFC
FFFC
FFF9
0000
FFFF
FFFC
FFED
FFE7
FFF6
FFF8
FFF0
FFEB
FFE9
FFF4
FFFA
FFF9
FFE6
FFE8
FFFB
FFEB
FFF5
FFE9
FFE8
FFF0
FFF1
FFF5
FFF5
FFF0
FFEF
FFF1
FFF8
FFDD
FFFD
FFF8
FFED
FFF9
FFEC
FFF5
FFFF
FFFC
FFE9
FFF3
FFED
0001
0003
FFED
FFEC
FFF9
FFF8
FFEB
FFE9
FFFB
FFEF
FFF5
FFF5
FFF3
FFE9
FFFC
FFFA
FFF2
FFEB
FFE6
FFF9
FFF8
FFEE
FFFF
FFEF
FFF9
FFF0
FFE9
FFFD
FFEA
FFFE
FFF8
FFFD
FFEC
FFF3
0002
FFF4
FFFE
FFF8
FFF0
